/*
 * Copyright 2022-2025 NXP
 *
 * SPDX-License-Identifier: BSD-3-Clause
 */
// Neutron Converter Version: 2.2.2+0Xbf7fd170
// Neutron Microcode Version: 0Xbf7fd170

/*
// Register operators for TFLite Micro.
static tflite::MicroMutableOpResolver<2> s_microOpResolver;
s_microOpResolver.AddSoftmax();
s_microOpResolver.AddCustom(tflite::GetString_NEUTRON_GRAPH(), tflite::Register_NEUTRON_GRAPH());
*/

#define MODEL_NAME "model_convertedfomotrack.tflite"
#define MODEL_SIZE 26832
#define MODEL_INPUT_MEAN 127.5f
#define MODEL_INPUT_STD 127.5f

static const unsigned char model_data[] __attribute__((aligned(16))) = {
  0x08, 0x00, 0x00, 0x00, 0x54, 0x46, 0x4c, 0x33, 0x92, 0x9b, 0xff, 0xff,
  0x03, 0x00, 0x00, 0x00, 0x68, 0x68, 0x00, 0x00, 0x58, 0x64, 0x00, 0x00,
  0xf0, 0x63, 0x00, 0x00, 0x04, 0x00, 0x00, 0x00, 0x04, 0x00, 0x00, 0x00,
  0xe0, 0x63, 0x00, 0x00, 0x7c, 0x56, 0x00, 0x00, 0x18, 0x00, 0x00, 0x00,
  0x04, 0x00, 0x00, 0x00, 0x56, 0x9b, 0xff, 0xff, 0x04, 0x00, 0x00, 0x00,
  0x01, 0x00, 0x00, 0x00, 0x00, 0x00, 0x00, 0x00, 0x66, 0x9b, 0xff, 0xff,
  0x04, 0x00, 0x00, 0x00, 0x54, 0x56, 0x00, 0x00, 0x91, 0x07, 0x59, 0x00,
  0x0f, 0x02, 0x35, 0x0a, 0xd0, 0x1a, 0x1c, 0x1a, 0x2d, 0x0e, 0xb5, 0x1a,
  0x9d, 0x0e, 0xb8, 0x17, 0x9a, 0x06, 0x3a, 0x80, 0xde, 0x0e, 0xce, 0x1b,
  0x08, 0x01, 0xfd, 0x92, 0x1b, 0x42, 0x9f, 0x3f, 0x9a, 0x42, 0xd9, 0x46,
  0x50, 0x53, 0x4b, 0x4e, 0x16, 0x47, 0x02, 0x4e, 0x57, 0x47, 0x04, 0x4f,
  0x0f, 0x3e, 0xb0, 0x3e, 0x04, 0x43, 0xc5, 0x52, 0xa6, 0x3e, 0x91, 0x4f,
  0xab, 0x93, 0xe3, 0x00, 0x69, 0xa2, 0xf6, 0x00, 0xe8, 0xfe, 0xd1, 0x00,
  0x77, 0x7d, 0x3a, 0x00, 0x10, 0xb9, 0x01, 0x00, 0xc0, 0x15, 0xf9, 0x00,
  0xf0, 0x4f, 0x7f, 0x00, 0x22, 0x20, 0xf7, 0x00, 0x43, 0xdc, 0x12, 0x00,
  0x81, 0x68, 0x17, 0x00, 0x24, 0x5f, 0x7f, 0x00, 0x01, 0xea, 0xf2, 0x00,
  0x14, 0x81, 0xfc, 0x00, 0x81, 0x1a, 0xff, 0x00, 0xcd, 0x37, 0xf0, 0x00,
  0x7f, 0x47, 0xf8, 0x00, 0x20, 0x7f, 0x14, 0x00, 0x0e, 0xff, 0xf4, 0x00,
  0xf4, 0xa2, 0xb1, 0x00, 0x9a, 0x81, 0xd4, 0x00, 0x05, 0x99, 0xe6, 0x00,
  0xad, 0x11, 0xfb, 0x00, 0xdc, 0xcd, 0xa8, 0x00, 0x30, 0x10, 0xec, 0x00,
  0xeb, 0xe2, 0x35, 0x00, 0xe6, 0x3d, 0xf8, 0x00, 0x18, 0x57, 0x0c, 0x00,
  0x07, 0xed, 0x09, 0x00, 0xd7, 0x31, 0xf6, 0x00, 0x56, 0x10, 0xf1, 0x00,
  0xe2, 0xe4, 0x30, 0x00, 0xae, 0xf5, 0x20, 0x00, 0xca, 0xaa, 0x7f, 0x00,
  0xe7, 0x7f, 0xf3, 0x00, 0xdb, 0x81, 0xe2, 0x00, 0x40, 0xa2, 0x23, 0x00,
  0x81, 0x72, 0x06, 0x00, 0x6f, 0x4c, 0xec, 0x00, 0x2c, 0x62, 0x81, 0x00,
  0x81, 0x8b, 0x18, 0x00, 0xe6, 0xc3, 0x60, 0x00, 0xf5, 0x5c, 0xf9, 0x00,
  0x0b, 0x27, 0x11, 0x00, 0xab, 0x7f, 0xd2, 0x00, 0xb2, 0x4f, 0x05, 0x00,
  0x68, 0x7f, 0x38, 0x00, 0xf0, 0xba, 0x50, 0x00, 0xf2, 0xb1, 0xff, 0x00,
  0x52, 0x13, 0x9e, 0x12, 0x99, 0x13, 0x20, 0x93, 0x92, 0x13, 0x56, 0x12,
  0xd1, 0x13, 0xc0, 0x93, 0xb2, 0x12, 0xb6, 0x12, 0xf1, 0x13, 0xa8, 0x93,
  0xaf, 0x92, 0x4d, 0x01, 0xeb, 0x0e, 0xb2, 0x03, 0x0c, 0x01, 0x4d, 0x02,
  0x15, 0x8e, 0x19, 0x06, 0x46, 0x07, 0x43, 0x93, 0x0b, 0x8b, 0x59, 0x06,
  0x43, 0x83, 0x38, 0x93, 0x50, 0x13, 0x1f, 0x17, 0x6c, 0x13, 0x80, 0x02,
  0x88, 0x13, 0xff, 0x16, 0x74, 0x13, 0x80, 0x07, 0x80, 0x13, 0x53, 0x17,
  0x28, 0x16, 0x0b, 0x12, 0xca, 0x12, 0x0f, 0x12, 0xfc, 0x17, 0x16, 0x0e,
  0xa2, 0x12, 0x7e, 0x0e, 0x98, 0x17, 0x26, 0x0f, 0x62, 0x13, 0x7e, 0x0f,
  0x37, 0x46, 0x58, 0x42, 0xc2, 0x47, 0x3b, 0x42, 0x8d, 0x3b, 0x80, 0x3a,
  0xc2, 0x47, 0x95, 0x3a, 0xf0, 0x42, 0x0a, 0x3b, 0x61, 0x42, 0x26, 0x42,
  0xf4, 0x4b, 0xac, 0x43, 0x44, 0x42, 0x7f, 0x3e, 0x08, 0xfb, 0x08, 0xfe,
  0x05, 0xfa, 0x02, 0x03, 0xfb, 0x02, 0xfd, 0xeb, 0x0c, 0xfb, 0x05, 0xfe,
  0x81, 0x7f, 0x7f, 0xff, 0x12, 0xeb, 0xf5, 0x81, 0x09, 0xf8, 0x02, 0xfc,
  0x15, 0xfd, 0x01, 0x01, 0xfe, 0xff, 0xf9, 0x00, 0xeb, 0x0b, 0xf6, 0x0f,
  0x7f, 0xe8, 0x81, 0xeb, 0xee, 0x0f, 0x39, 0x07, 0x0b, 0xff, 0xfd, 0xe6,
  0xa8, 0xa5, 0xf4, 0x9b, 0x06, 0xf0, 0xf9, 0x7f, 0x00, 0xf3, 0xf0, 0x0a,
  0xf5, 0x7f, 0x05, 0xf7, 0x00, 0xfb, 0x02, 0xfe, 0xfd, 0xf5, 0x08, 0xf8,
  0x7f, 0x7f, 0x05, 0xff, 0xf8, 0xf8, 0xfa, 0x01, 0xf5, 0x09, 0x03, 0x54,
  0x0a, 0x96, 0x7f, 0x7f, 0xf7, 0x01, 0xfe, 0xf1, 0x01, 0x02, 0x03, 0xf6,
  0xff, 0xf3, 0x01, 0xf4, 0xff, 0x02, 0xfd, 0x01, 0xfe, 0xfa, 0xfd, 0x02,
  0x74, 0xe7, 0x00, 0xee, 0x03, 0xff, 0xfe, 0xf6, 0xf7, 0x15, 0x01, 0x01,
  0x7f, 0x7f, 0x7f, 0x7f, 0xfb, 0xc5, 0xf3, 0xdd, 0x06, 0xfb, 0xfb, 0x01,
  0x0d, 0xfb, 0xf4, 0xf9, 0x06, 0xf9, 0xf9, 0xf6, 0x48, 0x92, 0x0f, 0x97,
  0xef, 0x97, 0x00, 0x17, 0x7c, 0x9a, 0x32, 0x01, 0x13, 0x97, 0x39, 0x0e,
  0x23, 0x4f, 0xb6, 0x4f, 0xfe, 0x4e, 0x17, 0x4a, 0x02, 0x4f, 0x1e, 0x4f,
  0x3b, 0x4f, 0x61, 0x4a, 0xf7, 0xf3, 0xea, 0xc7, 0x7f, 0xc5, 0xd2, 0x15,
  0xd6, 0x9f, 0x33, 0x2d, 0x26, 0x09, 0x0b, 0x0a, 0x9e, 0xe1, 0xeb, 0x81,
  0x51, 0x27, 0x3d, 0xda, 0x66, 0x2c, 0x81, 0xb5, 0x81, 0xfa, 0x65, 0xe0,
  0xf0, 0xe1, 0x17, 0xee, 0xd3, 0x4e, 0xbd, 0xd3, 0x31, 0xc1, 0xb5, 0xe9,
  0xee, 0x44, 0xcb, 0xed, 0xfe, 0x2c, 0x39, 0x88, 0x2f, 0xd8, 0x81, 0x90,
  0x20, 0xbf, 0x07, 0xa3, 0xbd, 0xff, 0xfa, 0xc5, 0x28, 0x0f, 0xe0, 0xfb,
  0xd6, 0x58, 0xd7, 0xce, 0x1d, 0x9f, 0x1c, 0x81, 0x7f, 0x2c, 0x0d, 0x10,
  0x28, 0xe7, 0xd5, 0xda, 0xf5, 0xc1, 0x3d, 0x2d, 0xdb, 0x13, 0x9a, 0x59,
  0xcd, 0x38, 0x55, 0xdf, 0x71, 0x7f, 0xed, 0x98, 0xf4, 0x03, 0xc2, 0xee,
  0x2d, 0xea, 0xb8, 0x1a, 0x04, 0xf3, 0x08, 0x1a, 0x93, 0x23, 0xdf, 0xf1,
  0xcc, 0x2d, 0x36, 0xd8, 0x52, 0xa6, 0x0e, 0x3f, 0x3b, 0xe6, 0x16, 0x1d,
  0xc8, 0x8a, 0x03, 0x01, 0x02, 0x87, 0xad, 0x0f, 0x89, 0x12, 0x49, 0x0b,
  0x1c, 0x06, 0xe5, 0x0a, 0xbb, 0x0e, 0x3c, 0x0b, 0x67, 0x8e, 0x5a, 0x0b,
  0xac, 0x02, 0x89, 0x0a, 0x72, 0x8e, 0x9c, 0x03, 0xec, 0x00, 0x1c, 0x0f,
  0xc9, 0x0b, 0x60, 0x87, 0xbf, 0x0e, 0x0e, 0x00, 0x39, 0x0b, 0x95, 0x82,
  0x4f, 0x8a, 0x20, 0x81, 0x0c, 0x8b, 0x29, 0x06, 0x1f, 0x86, 0xb8, 0x0f,
  0x2a, 0x81, 0xda, 0x07, 0x68, 0x0b, 0x7e, 0x01, 0xcc, 0x06, 0x49, 0x0e,
  0x67, 0x07, 0x5b, 0x83, 0x92, 0x0f, 0xa6, 0x00, 0xa8, 0x02, 0x5d, 0x0e,
  0x1d, 0x8a, 0xec, 0x0b, 0x65, 0x02, 0x5b, 0x0a, 0x18, 0x00, 0xc6, 0x0e,
  0x65, 0x3e, 0x6e, 0x3e, 0x34, 0x3e, 0x8f, 0x43, 0x07, 0x4b, 0x37, 0x3e,
  0x8a, 0x3f, 0x1e, 0x43, 0xb4, 0x43, 0x57, 0x3f, 0x0d, 0x3e, 0x2e, 0x43,
  0x8a, 0x42, 0x4e, 0x3e, 0xa7, 0x43, 0x46, 0x3e, 0xb6, 0x43, 0x80, 0x46,
  0x23, 0x43, 0x3c, 0x3e, 0x08, 0x3e, 0xd9, 0x42, 0xcf, 0x3e, 0x04, 0x3e,
  0x65, 0x3e, 0x9b, 0x3a, 0x10, 0x3e, 0x2f, 0x3a, 0x45, 0x43, 0x92, 0x46,
  0xa1, 0x43, 0x46, 0x3a, 0x9b, 0x3e, 0x9c, 0x3e, 0x40, 0x3e, 0x1c, 0x3e,
  0x39, 0x3e, 0x3c, 0x3f, 0x1d, 0x3e, 0x4d, 0x3f, 0xd3, 0x3e, 0xa0, 0x43,
  0x30, 0x3e, 0x7c, 0x3e, 0xa3, 0x3e, 0x96, 0x43, 0xd0, 0x43, 0xde, 0x43,
  0xd4, 0x13, 0xfb, 0xe5, 0x63, 0xc2, 0xcb, 0xb7, 0x97, 0x6e, 0xdc, 0x81,
  0x42, 0x14, 0x5e, 0x13, 0xb6, 0x81, 0x56, 0x0f, 0x7f, 0xea, 0x3f, 0x37,
  0x16, 0x1a, 0x7f, 0xe2, 0x1e, 0x0f, 0x81, 0xef, 0x98, 0xc0, 0x81, 0x11,
  0x7f, 0xac, 0x57, 0x16, 0x3c, 0xe2, 0xeb, 0x21, 0x61, 0x7e, 0x7f, 0xeb,
  0xba, 0x8e, 0x15, 0xc6, 0xb7, 0xf8, 0x13, 0xeb, 0x26, 0xde, 0xcc, 0x23,
  0xda, 0x67, 0x5f, 0xc2, 0xfb, 0x7f, 0xd4, 0x12, 0x0b, 0x7f, 0xb6, 0x3f,
  0x03, 0x99, 0xfd, 0xdc, 0x81, 0xa5, 0x74, 0x2c, 0xda, 0x2e, 0x81, 0x4a,
  0x55, 0x81, 0x5c, 0x50, 0xf5, 0x68, 0xd7, 0x81, 0x26, 0x62, 0x15, 0xed,
  0x42, 0x66, 0x21, 0x3e, 0x0f, 0x98, 0x19, 0x6d, 0xc7, 0x81, 0xc9, 0xbe,
  0xf4, 0xb6, 0x62, 0x3f, 0x24, 0xba, 0xb1, 0x6f, 0x08, 0x1f, 0x25, 0xcb,
  0xe7, 0x86, 0xce, 0xb4, 0x13, 0xb6, 0x5a, 0x81, 0x92, 0x81, 0xdc, 0x55,
  0xe9, 0x8c, 0x81, 0x4b, 0x8f, 0xcc, 0xd6, 0x76, 0x43, 0x87, 0x74, 0x81,
  0xfb, 0x3f, 0x1b, 0x12, 0x1a, 0x6b, 0x28, 0xdf, 0x1c, 0x11, 0x64, 0x0d,
  0x9c, 0xbe, 0x21, 0xb8, 0xc3, 0x20, 0xe9, 0x55, 0xbf, 0x3b, 0xd3, 0x3f,
  0xe4, 0x52, 0x00, 0x7f, 0x13, 0xc4, 0x23, 0xde, 0x25, 0x7f, 0x53, 0xfb,
  0x25, 0xbb, 0x5e, 0x81, 0x01, 0x7f, 0x1d, 0xde, 0x55, 0x4e, 0xce, 0x81,
  0x97, 0xa2, 0x3c, 0xa6, 0x7f, 0x12, 0xcb, 0xf2, 0x88, 0xda, 0x81, 0xe6,
  0x4f, 0x2b, 0xff, 0xbb, 0x81, 0xaf, 0x08, 0x34, 0x6a, 0x40, 0x17, 0x81,
  0xa6, 0xb9, 0x25, 0xb3, 0x30, 0x27, 0xfe, 0x7f, 0x6e, 0x72, 0xdc, 0x81,
  0x07, 0x13, 0xbf, 0xee, 0xc6, 0xe8, 0x0f, 0x00, 0x81, 0xe3, 0x65, 0x62,
  0xc7, 0x8b, 0x1c, 0xed, 0x0f, 0x08, 0xda, 0xaa, 0x4e, 0x52, 0xd4, 0x81,
  0x07, 0xb0, 0x0e, 0x08, 0xe6, 0x7f, 0x03, 0x1e, 0xdd, 0x7f, 0xc9, 0x0a,
  0x81, 0x92, 0xe2, 0x65, 0xce, 0x7f, 0xe2, 0x07, 0x4a, 0x1d, 0x0b, 0xca,
  0xc4, 0x7f, 0x1e, 0x0d, 0x1f, 0x1c, 0x35, 0x16, 0xea, 0xa9, 0x16, 0xe6,
  0x1e, 0x34, 0xfb, 0x24, 0x20, 0xdb, 0xf2, 0xfa, 0xf8, 0x1a, 0x15, 0x6a,
  0x4f, 0x78, 0x41, 0x46, 0x81, 0xdd, 0x67, 0x63, 0x84, 0x72, 0xe5, 0x8b,
  0x7f, 0x5d, 0x74, 0x31, 0x00, 0x21, 0x98, 0x7f, 0xa7, 0xd4, 0xc1, 0x7f,
  0x7f, 0xff, 0x32, 0x70, 0xdc, 0xfd, 0xc9, 0x81, 0x16, 0xfd, 0x50, 0x01,
  0xe7, 0xe8, 0xc8, 0x7f, 0x36, 0x73, 0x6e, 0x81, 0xe0, 0x81, 0xd5, 0x20,
  0x29, 0x28, 0x7a, 0x0a, 0xe1, 0x02, 0x0e, 0x35, 0xc9, 0x07, 0x05, 0xec,
  0x2b, 0x9e, 0x08, 0x3e, 0x29, 0x7f, 0x60, 0x0a, 0x2e, 0x09, 0xdd, 0xda,
  0x2d, 0xd6, 0x17, 0x92, 0xfa, 0x28, 0xb9, 0x7e, 0x4f, 0x7f, 0x64, 0xec,
  0x29, 0x9e, 0x7e, 0x9e, 0x06, 0x9e, 0x4f, 0x80, 0x8e, 0x9b, 0xa9, 0x9b,
  0x3d, 0x9a, 0xea, 0x96, 0x41, 0x8e, 0xec, 0x82, 0x02, 0x1e, 0x56, 0x97,
  0x42, 0x8a, 0x51, 0x12, 0x74, 0x1b, 0x26, 0x97, 0xf1, 0x8e, 0x23, 0x92,
  0x0c, 0x1b, 0x92, 0x96, 0x39, 0x93, 0x1a, 0x96, 0x96, 0x1a, 0x4e, 0x8b,
  0xb6, 0x1b, 0xff, 0x1b, 0x8f, 0x12, 0x6d, 0x9b, 0x5c, 0x1b, 0x3b, 0x1b,
  0x52, 0x8e, 0xe3, 0x9a, 0xc0, 0x0f, 0x18, 0x97, 0x39, 0x86, 0xee, 0x9b,
  0x70, 0x13, 0x9c, 0x97, 0xf2, 0x83, 0xbe, 0x9a, 0x33, 0x9b, 0x52, 0x1e,
  0x47, 0x9b, 0xe5, 0x16, 0x31, 0x9a, 0x17, 0x1e, 0x2d, 0x9a, 0x65, 0x17,
  0x71, 0x9b, 0xf6, 0x1e, 0x7e, 0x1e, 0xb0, 0x9b, 0x85, 0x97, 0x6d, 0x1e,
  0x16, 0x1e, 0x44, 0x9a, 0x63, 0x8f, 0xac, 0x0a, 0xf4, 0x16, 0x04, 0x9e,
  0x26, 0x8a, 0xa9, 0x86, 0x48, 0x93, 0x81, 0x9a, 0xbe, 0x9b, 0xe3, 0x9b,
  0x6c, 0x8a, 0xcc, 0x1e, 0xe4, 0x9a, 0xdb, 0x9b, 0x1b, 0x92, 0x05, 0x1e,
  0x17, 0x1b, 0xbb, 0x1e, 0x1c, 0x12, 0x51, 0x9b, 0xe1, 0x17, 0x10, 0x1e,
  0xf4, 0x12, 0x1f, 0x9b, 0x89, 0x8f, 0x13, 0x8f, 0x6a, 0x1e, 0x95, 0x1e,
  0xe9, 0x8f, 0x48, 0x9a, 0xa9, 0x1b, 0x25, 0x1e, 0x0b, 0x1e, 0x6a, 0x8e,
  0x17, 0x1e, 0x06, 0x86, 0x22, 0x1b, 0x5a, 0x06, 0xcd, 0x1b, 0xff, 0x0f,
  0x8b, 0x4b, 0x30, 0x46, 0x16, 0x47, 0x4d, 0x47, 0x1e, 0x3a, 0x0e, 0x47,
  0x77, 0x46, 0x1f, 0x46, 0xf9, 0x46, 0xf4, 0x4a, 0x07, 0x4b, 0x28, 0x4a,
  0x26, 0x46, 0x0d, 0x4b, 0x16, 0x42, 0xff, 0x47, 0x52, 0x46, 0x68, 0x3e,
  0xee, 0x46, 0xae, 0x46, 0x92, 0x46, 0x2c, 0x3e, 0x12, 0x47, 0xad, 0x42,
  0x54, 0x47, 0x4c, 0x4b, 0x81, 0x4a, 0x49, 0x46, 0x02, 0x42, 0x0f, 0x3a,
  0xba, 0x42, 0x55, 0x4b, 0xc3, 0x46, 0x0b, 0x47, 0x00, 0x47, 0xc3, 0x4a,
  0x2a, 0x46, 0x1b, 0x4b, 0xc6, 0x46, 0x07, 0x4b, 0x1d, 0x47, 0xc5, 0x46,
  0x8f, 0x4b, 0x0a, 0x46, 0xca, 0x4b, 0x27, 0x43, 0xee, 0x4a, 0x41, 0x42,
  0xc7, 0xba, 0xd9, 0xe3, 0x8c, 0xab, 0xd4, 0xc3, 0x81, 0xc4, 0xef, 0x1d,
  0xc0, 0x90, 0xbb, 0x33, 0x9a, 0x81, 0x81, 0x9e, 0x90, 0xc1, 0xcd, 0xba,
  0x07, 0xca, 0xb3, 0x56, 0xcc, 0xd1, 0x99, 0x7f, 0xcb, 0xbb, 0xcd, 0xe5,
  0x7f, 0xc0, 0x3d, 0xd1, 0xb3, 0xa3, 0x6f, 0x98, 0xd3, 0xd8, 0x15, 0xe3,
  0xa1, 0x6c, 0x35, 0xc2, 0xdd, 0x7f, 0x7f, 0x81, 0x5c, 0x22, 0x36, 0xcc,
  0xcd, 0xe3, 0x07, 0x08, 0x3e, 0xd3, 0x39, 0xf6, 0xe3, 0xfa, 0x08, 0xf6,
  0xaf, 0xa6, 0xf6, 0xc7, 0x81, 0x81, 0x68, 0xaa, 0x08, 0xd4, 0x1a, 0xc5,
  0xb8, 0x20, 0x54, 0x8a, 0x48, 0x34, 0x7f, 0x81, 0x53, 0x0c, 0xd5, 0xb4,
  0x48, 0x18, 0x3b, 0xbd, 0x30, 0x1e, 0x0e, 0xd1, 0xc0, 0x0c, 0xf2, 0xe8,
  0x60, 0x2f, 0x46, 0x81, 0x5d, 0x42, 0x81, 0xb8, 0x03, 0x1e, 0xd9, 0x03,
  0x7f, 0x58, 0x6f, 0xa8, 0x73, 0x7f, 0x48, 0x96, 0xfb, 0x2c, 0x87, 0xc6,
  0x1d, 0x2d, 0xf5, 0xef, 0x1a, 0x32, 0x4f, 0xd4, 0xf6, 0x03, 0x33, 0xf8,
  0x3e, 0xec, 0x02, 0xc2, 0x7f, 0x81, 0xc6, 0xae, 0xb6, 0xe6, 0x5d, 0xeb,
  0xb7, 0xb1, 0x19, 0xb6, 0x32, 0xa4, 0x81, 0x81, 0x1f, 0x0c, 0x30, 0xbf,
  0xb7, 0xf5, 0x13, 0xd2, 0xf2, 0x09, 0xec, 0xbd, 0x25, 0x23, 0x00, 0xd9,
  0xbd, 0x6a, 0x0d, 0x0c, 0xaf, 0x7f, 0xe9, 0x02, 0xf6, 0x31, 0xcf, 0xf4,
  0xd2, 0x65, 0xcb, 0x6e, 0x81, 0x7d, 0x81, 0x7f, 0xd8, 0x1e, 0xbf, 0x30,
  0xf5, 0x1c, 0xc3, 0x02, 0xb1, 0x16, 0xb7, 0xf1, 0xd9, 0x09, 0xf9, 0xed,
  0xf3, 0x56, 0x38, 0xe3, 0xf6, 0x59, 0x6f, 0xcf, 0xf8, 0x68, 0x54, 0xf1,
  0xb2, 0x70, 0x4d, 0x89, 0x81, 0x7f, 0x7f, 0x81, 0xc1, 0x61, 0x47, 0xd8,
  0xc7, 0x24, 0x15, 0xab, 0x99, 0x2d, 0x2a, 0xb8, 0xc9, 0x38, 0x29, 0xe7,
  0x4a, 0xbd, 0x08, 0xb8, 0x97, 0xb5, 0xf3, 0xae, 0x15, 0x36, 0xed, 0xee,
  0x55, 0xd1, 0x0a, 0x83, 0x81, 0x7f, 0x01, 0x81, 0x14, 0x09, 0xed, 0xef,
  0x1d, 0x33, 0x7f, 0xaf, 0xc6, 0x25, 0x75, 0x94, 0xf8, 0xc8, 0x32, 0xfa,
  0xa2, 0xb6, 0x35, 0x50, 0xa6, 0x81, 0x81, 0x49, 0x08, 0xa4, 0xd3, 0x27,
  0xcc, 0xa8, 0x4d, 0x7f, 0x81, 0x90, 0x2f, 0x75, 0xbb, 0xdf, 0xb7, 0x3e,
  0x0e, 0xfd, 0xf0, 0x37, 0xd9, 0xfb, 0x36, 0x51, 0xac, 0x04, 0x0a, 0x3f,
  0x12, 0x64, 0x74, 0xa6, 0x1a, 0x5d, 0x0a, 0xa5, 0x03, 0x17, 0xc9, 0xca,
  0x7f, 0x7d, 0x7f, 0xaa, 0x7c, 0x7f, 0xff, 0x81, 0x14, 0x1c, 0xa6, 0xa3,
  0x49, 0x43, 0x36, 0x12, 0x3d, 0x4f, 0xe7, 0xf7, 0x0d, 0x19, 0xc8, 0xde,
  0x85, 0xe1, 0x33, 0x3e, 0x3b, 0xdc, 0x4f, 0x7c, 0x07, 0xe8, 0x27, 0x35,
  0x81, 0xbe, 0x4d, 0x5c, 0x5f, 0xa0, 0x7f, 0x7f, 0x18, 0xce, 0x51, 0x54,
  0xe2, 0x4b, 0x4d, 0x22, 0x27, 0x7f, 0x3c, 0x27, 0xfd, 0x29, 0x0c, 0x27,
  0x31, 0x81, 0x55, 0x44, 0x4b, 0x67, 0x7c, 0x82, 0x1a, 0x2a, 0x0b, 0xc1,
  0x5c, 0x70, 0x5e, 0x48, 0x7f, 0xfa, 0x7f, 0x6f, 0x21, 0x85, 0x1c, 0x06,
  0x27, 0x1a, 0x0c, 0x81, 0x36, 0xc7, 0x17, 0x0f, 0x1d, 0xef, 0x0e, 0x28,
  0xb4, 0x92, 0xb8, 0x93, 0x98, 0x13, 0x77, 0x9a, 0x33, 0x0e, 0x5a, 0x8b,
  0xe6, 0x12, 0x2f, 0x1e, 0x35, 0x4b, 0x29, 0x4f, 0x1b, 0x4a, 0xe2, 0x4f,
  0x58, 0x4a, 0x9d, 0x4f, 0x23, 0x4b, 0xce, 0x4f, 0xd0, 0xf7, 0x1b, 0x0b,
  0x0e, 0x2c, 0x42, 0xdd, 0xfa, 0xee, 0xb9, 0x0e, 0x02, 0x1b, 0xb4, 0x34,
  0xec, 0xca, 0xfd, 0x04, 0x32, 0xf5, 0x10, 0x0e, 0x3f, 0xe4, 0x12, 0xfa,
  0xe2, 0x0b, 0xff, 0x40, 0xdb, 0xf1, 0x04, 0x04, 0xf9, 0x2a, 0xca, 0xe6,
  0xfb, 0x3e, 0x1c, 0x0f, 0x13, 0xde, 0xbd, 0x96, 0x22, 0xdf, 0xf8, 0xf7,
  0x1a, 0xda, 0x27, 0x81, 0xe3, 0xed, 0xd8, 0x10, 0x24, 0x1c, 0x0b, 0x24,
  0xd7, 0xfd, 0xc3, 0xcb, 0x0a, 0x1b, 0xea, 0x9a, 0xfb, 0x2d, 0x00, 0x19,
  0x10, 0xe5, 0xd7, 0x01, 0x1f, 0xde, 0x42, 0xb3, 0x17, 0xe4, 0xf3, 0x78,
  0xd9, 0xff, 0xd9, 0x7f, 0x19, 0xfb, 0x4c, 0xf9, 0xe4, 0xc2, 0xf5, 0xe1,
  0x13, 0x65, 0xf4, 0x38, 0x41, 0xa9, 0x15, 0xc3, 0x04, 0x1f, 0x21, 0x4a,
  0x03, 0x1d, 0x0e, 0x0e, 0xb8, 0x53, 0x12, 0xbe, 0xd4, 0xdb, 0xf8, 0x3b,
  0x7e, 0x70, 0x3d, 0x33, 0x2c, 0xd7, 0x2b, 0x26, 0xe4, 0x1c, 0xd9, 0xc1,
  0x1b, 0xa4, 0x0a, 0x1c, 0xf8, 0x13, 0xdd, 0x26, 0xe9, 0xe5, 0x09, 0xf4,
  0x07, 0x9c, 0x0f, 0xff, 0x08, 0x31, 0x0f, 0x27, 0x2c, 0x34, 0xf0, 0x05,
  0xf7, 0x19, 0xdb, 0x0f, 0xf5, 0xa6, 0xe2, 0x1c, 0xd6, 0x35, 0xfd, 0x20,
  0x00, 0x9b, 0x16, 0xbd, 0xff, 0xc9, 0xfe, 0xef, 0xdd, 0x4f, 0xdd, 0xd9,
  0x20, 0xb4, 0xe0, 0x14, 0x1a, 0xf0, 0xb2, 0xe0, 0xfd, 0xd8, 0x32, 0xea,
  0xac, 0xf6, 0xf4, 0x8d, 0xe5, 0x3e, 0xe4, 0xb9, 0xba, 0xfe, 0x7f, 0xf9,
  0x10, 0xfa, 0x27, 0x2f, 0xbf, 0x53, 0xe7, 0xff, 0x17, 0x26, 0xbf, 0x06,
  0x19, 0x07, 0xe4, 0x4b, 0xff, 0xf3, 0x11, 0x09, 0xe4, 0xea, 0x26, 0xb7,
  0x12, 0xf8, 0x19, 0xaa, 0xcd, 0x08, 0xbb, 0x09, 0x2a, 0x12, 0xf2, 0x1b,
  0xe5, 0x37, 0xdb, 0xd4, 0x0e, 0xda, 0x0f, 0x2b, 0x26, 0xe4, 0xdc, 0xee,
  0x4f, 0x1d, 0x1f, 0x81, 0x2e, 0x55, 0xd1, 0x03, 0xca, 0xa4, 0x17, 0xdc,
  0xf4, 0xa3, 0x0a, 0xf8, 0xed, 0xf9, 0x01, 0x04, 0x22, 0x42, 0x26, 0x01,
  0xf9, 0x04, 0xef, 0x04, 0x23, 0xfe, 0x23, 0x98, 0x14, 0x01, 0xeb, 0xdc,
  0x7d, 0xd8, 0xfe, 0x3e, 0x62, 0x14, 0xf3, 0xc6, 0xe6, 0xd8, 0xf0, 0x69,
  0xba, 0x60, 0x2f, 0xe2, 0xda, 0xf3, 0xcc, 0xd6, 0x0b, 0x06, 0x04, 0xf9,
  0xb3, 0x23, 0x28, 0x3c, 0x03, 0xf5, 0x2a, 0x30, 0xd1, 0x21, 0xae, 0xda,
  0xf3, 0x27, 0x60, 0x1a, 0xcd, 0xde, 0xfc, 0x19, 0x1a, 0xe3, 0xed, 0xec,
  0x1c, 0xe6, 0xd2, 0xfb, 0xf8, 0xf4, 0x26, 0x42, 0xde, 0x1f, 0x5a, 0x7f,
  0x21, 0x06, 0x19, 0x02, 0x7f, 0xe9, 0xd7, 0xec, 0x7f, 0x0b, 0x0c, 0x20,
  0x27, 0x06, 0xd6, 0x37, 0xb2, 0x0d, 0x7f, 0x0c, 0xe6, 0x3a, 0x61, 0x15,
  0xfd, 0xe2, 0x46, 0xf8, 0xc1, 0xdf, 0x93, 0x44, 0xad, 0x0e, 0xce, 0x0a,
  0x87, 0x13, 0xd6, 0x03, 0xf2, 0x0b, 0x29, 0x82, 0x03, 0x0f, 0x82, 0x13,
  0x05, 0x12, 0x31, 0x02, 0xd1, 0x0a, 0x13, 0x8e, 0x63, 0x16, 0x75, 0x8b,
  0x34, 0x86, 0x12, 0x16, 0xcc, 0x03, 0x60, 0x0a, 0x40, 0x81, 0xa9, 0x0b,
  0x01, 0x0a, 0x6b, 0x0e, 0xff, 0x87, 0x08, 0x16, 0x20, 0x0f, 0xfa, 0x86,
  0x5b, 0x17, 0x13, 0x80, 0x08, 0x12, 0x6a, 0x0e, 0xa1, 0x80, 0x20, 0x0b,
  0x00, 0x0a, 0x57, 0x0b, 0xb6, 0x01, 0x23, 0x86, 0x9f, 0x8e, 0x5b, 0x8a,
  0x0d, 0x03, 0x5c, 0x07, 0x59, 0x0f, 0xc5, 0x0b, 0xbf, 0x0e, 0x7c, 0x12,
  0x08, 0x0f, 0x4b, 0x0a, 0x6d, 0x0e, 0xcd, 0x0e, 0x2c, 0x42, 0xb8, 0x47,
  0x02, 0x46, 0xda, 0x47, 0x40, 0x42, 0x32, 0x42, 0x27, 0x42, 0x3e, 0x4b,
  0xed, 0x47, 0xd5, 0x42, 0x6c, 0x42, 0x5a, 0x42, 0x08, 0x4a, 0x8b, 0x42,
  0xbe, 0x42, 0x48, 0x4a, 0x8d, 0x43, 0x08, 0x42, 0x9c, 0x42, 0xbf, 0x42,
  0x2b, 0x42, 0x42, 0x47, 0x1e, 0x3e, 0xb8, 0x4a, 0xa1, 0x47, 0x01, 0x42,
  0x72, 0x4f, 0xc1, 0x42, 0x95, 0x47, 0x27, 0x47, 0x3f, 0x3e, 0x37, 0x3e,
  0x72, 0x42, 0x2c, 0x42, 0x33, 0x43, 0x1b, 0x43, 0x93, 0x42, 0x65, 0x43,
  0x18, 0x42, 0xb6, 0x47, 0x9a, 0x46, 0x3a, 0x42, 0xfd, 0x47, 0x0c, 0x47,
  0xb8, 0x46, 0xb4, 0x42, 0x19, 0x3e, 0xf8, 0x46, 0x5e, 0x7f, 0xb3, 0xa8,
  0x45, 0xc3, 0x3d, 0x81, 0xd5, 0x7f, 0x65, 0x19, 0x73, 0x30, 0xb9, 0x53,
  0xcd, 0x24, 0xeb, 0xba, 0x22, 0x54, 0x81, 0xb2, 0xe9, 0x7f, 0x35, 0x2d,
  0x7d, 0xc6, 0xe1, 0x2e, 0x0e, 0x5d, 0x07, 0x49, 0xc2, 0x41, 0x9d, 0xdc,
  0x53, 0xf9, 0x2c, 0x24, 0x1c, 0x94, 0x81, 0xcd, 0xd3, 0x5b, 0x7f, 0x3b,
  0x5b, 0x6e, 0x30, 0xda, 0x3f, 0x0f, 0x0c, 0xba, 0xff, 0x02, 0x7f, 0x16,
  0x45, 0x7c, 0x33, 0x76, 0x35, 0x47, 0x81, 0xa7, 0xb9, 0xdf, 0x2b, 0xe3,
  0x12, 0x96, 0x81, 0xec, 0xf1, 0xc5, 0x8e, 0xea, 0xf9, 0x05, 0x93, 0x69,
  0xc1, 0xdb, 0x81, 0xf7, 0x1e, 0x9d, 0x83, 0x2d, 0x7f, 0x57, 0x67, 0x92,
  0x1d, 0x59, 0x10, 0x33, 0x09, 0xdd, 0xcb, 0x7f, 0x0c, 0xfb, 0x20, 0xf2,
  0x81, 0x31, 0xb1, 0x2a, 0x81, 0xde, 0xf8, 0xfc, 0x23, 0x07, 0xf6, 0xb6,
  0x81, 0xd4, 0xc3, 0xef, 0x7f, 0xc1, 0xec, 0x37, 0xeb, 0x77, 0x7f, 0xdb,
  0x09, 0x81, 0x25, 0x4d, 0x7f, 0xd5, 0xc6, 0x2d, 0xe7, 0x81, 0x55, 0x44,
  0xe8, 0xb7, 0xd4, 0xdf, 0x81, 0x22, 0xad, 0x29, 0xb4, 0xcf, 0x2f, 0x16,
  0xa0, 0x19, 0x12, 0x68, 0xc6, 0xea, 0xd7, 0xe7, 0x0a, 0xc7, 0x37, 0xa1,
  0xa4, 0x06, 0x2f, 0x5f, 0xf7, 0xa8, 0x06, 0xc0, 0x7f, 0xf1, 0x3d, 0x12,
  0x30, 0x29, 0x8d, 0xa9, 0x99, 0x7f, 0x77, 0xce, 0xdc, 0x28, 0xfb, 0xe3,
  0xf3, 0x8c, 0x81, 0xc2, 0xef, 0x2b, 0xf3, 0x7f, 0x12, 0x81, 0x1e, 0x47,
  0x0c, 0x7f, 0x3c, 0x40, 0x66, 0x26, 0xe1, 0x02, 0x23, 0xed, 0x2f, 0x81,
  0x24, 0xcf, 0x03, 0x34, 0xe6, 0x7f, 0x55, 0xef, 0xcc, 0xef, 0xde, 0xd7,
  0x8c, 0x2a, 0xa8, 0xfd, 0x1e, 0xc3, 0x06, 0x8b, 0x5a, 0xed, 0x1d, 0xdb,
  0x44, 0x92, 0x81, 0x16, 0x28, 0xd8, 0x0a, 0xf9, 0xf5, 0x17, 0x13, 0x7f,
  0xab, 0xd4, 0x1a, 0xc9, 0xe8, 0x3a, 0x34, 0xe6, 0x11, 0x7f, 0xa3, 0xcf,
  0x18, 0x81, 0x22, 0x39, 0xe5, 0xf4, 0xd3, 0xf9, 0xcc, 0x81, 0x34, 0x53,
  0xb6, 0x14, 0x33, 0xc2, 0x63, 0x81, 0x7f, 0x63, 0xd6, 0x68, 0x32, 0x7f,
  0x22, 0x73, 0x81, 0x3a, 0x0a, 0x23, 0xc1, 0x3d, 0xea, 0xba, 0x19, 0xb2,
  0x81, 0xd9, 0xe5, 0x0f, 0xdb, 0xad, 0xfe, 0xc8, 0x81, 0xb5, 0xc5, 0x53,
  0xcc, 0x9c, 0xc9, 0x9a, 0xfa, 0x2b, 0x01, 0x41, 0x7f, 0x7a, 0xa8, 0x8f,
  0xfe, 0xd4, 0xfa, 0x04, 0x7f, 0x15, 0x70, 0x22, 0x5e, 0x2d, 0xcc, 0x1c,
  0x25, 0xfe, 0x10, 0xfe, 0x41, 0xcf, 0xed, 0x7f, 0x8e, 0xae, 0x3b, 0x56,
  0x81, 0xf8, 0xd2, 0x07, 0x56, 0x07, 0x05, 0x13, 0x7f, 0x11, 0x31, 0x0a,
  0xbc, 0xdb, 0x43, 0x7c, 0x45, 0x81, 0x88, 0x07, 0x54, 0x81, 0x00, 0xd8,
  0x2f, 0x44, 0x1f, 0x4c, 0xd0, 0x2c, 0x7f, 0xc4, 0x2d, 0x8a, 0x56, 0x93,
  0x92, 0x0e, 0xd7, 0x0e, 0xda, 0x87, 0xc3, 0x96, 0x65, 0x0b, 0xb8, 0x01,
  0x5a, 0x87, 0x83, 0x97, 0x52, 0x0f, 0x37, 0x0e, 0xaf, 0x02, 0xa6, 0x1a,
  0x49, 0x96, 0xe5, 0x0f, 0x4c, 0x0a, 0x79, 0x0a, 0xf1, 0x92, 0x6b, 0x12,
  0x63, 0x13, 0xc2, 0x93, 0x77, 0x07, 0x56, 0x8b, 0x0c, 0x1a, 0x4a, 0x8e,
  0xd4, 0x12, 0xac, 0x92, 0xd4, 0x17, 0x13, 0x8a, 0x62, 0x16, 0x3c, 0x92,
  0xe8, 0x16, 0xe3, 0x13, 0x96, 0x16, 0xe4, 0x93, 0x98, 0x96, 0x62, 0x13,
  0xa0, 0x13, 0x14, 0x03, 0xf7, 0x83, 0x82, 0x13, 0xd8, 0x13, 0xf6, 0x87,
  0x51, 0x0f, 0x9a, 0x13, 0xf8, 0x12, 0xa5, 0x0a, 0xe4, 0x13, 0x7d, 0x1a,
  0x6f, 0x93, 0x9e, 0x13, 0x7e, 0x16, 0x55, 0x1a, 0x5b, 0x8a, 0x5b, 0x16,
  0x86, 0x16, 0x91, 0x17, 0x35, 0x17, 0x67, 0x16, 0x14, 0x16, 0x4e, 0x13,
  0x5d, 0x16, 0xac, 0x12, 0x08, 0x17, 0x79, 0x0b, 0xed, 0x16, 0x64, 0x13,
  0x50, 0x16, 0xbb, 0x16, 0x6d, 0x16, 0xc4, 0x12, 0x7d, 0x17, 0x03, 0x96,
  0x20, 0x8f, 0xbd, 0x16, 0xa8, 0x0b, 0x69, 0x83, 0xc0, 0x92, 0x7b, 0x12,
  0xb8, 0x8b, 0x03, 0x0f, 0xd8, 0x92, 0xa9, 0x02, 0xca, 0x92, 0x44, 0x83,
  0xa8, 0x13, 0x27, 0x8f, 0x8c, 0x86, 0x79, 0x8f, 0xd8, 0x16, 0xf2, 0x97,
  0x7f, 0x12, 0xb9, 0x8e, 0x70, 0x13, 0x62, 0x97, 0xd7, 0x8e, 0xaf, 0x13,
  0x9e, 0x16, 0x96, 0x06, 0xa7, 0x8f, 0x9f, 0x13, 0xbf, 0x82, 0x2a, 0x86,
  0x14, 0x92, 0x67, 0x13, 0x34, 0x92, 0x9b, 0x8e, 0x4b, 0x00, 0xcf, 0x13,
  0x61, 0x92, 0x24, 0x93, 0x4b, 0x02, 0xc6, 0x8b, 0xd9, 0x93, 0x2e, 0x96,
  0xd7, 0x8e, 0x73, 0x8f, 0x79, 0x96, 0x14, 0x93, 0x68, 0x8f, 0xcf, 0x8a,
  0xee, 0x93, 0xc5, 0x87, 0xc1, 0x82, 0x3a, 0x16, 0x06, 0x93, 0xe9, 0x93,
  0xf4, 0x92, 0x8e, 0x16, 0x1f, 0x97, 0x5c, 0x96, 0xac, 0x13, 0x35, 0x1a,
  0x7e, 0x16, 0x1d, 0x02, 0x51, 0x0b, 0x85, 0x1a, 0xd2, 0x17, 0x19, 0x16,
  0x14, 0x13, 0xb5, 0x13, 0xe3, 0x12, 0x3d, 0x17, 0x50, 0x43, 0x4c, 0x47,
  0xd8, 0x3f, 0x24, 0x42, 0x96, 0x42, 0x4b, 0x42, 0x03, 0x42, 0x0a, 0x3e,
  0x18, 0x46, 0x95, 0x42, 0xae, 0x47, 0x31, 0x3a, 0xc3, 0x3e, 0xb5, 0x3e,
  0x15, 0x43, 0x29, 0x3a, 0x19, 0x42, 0x96, 0x4b, 0x01, 0x43, 0xb4, 0x42,
  0xf9, 0x42, 0xc0, 0x42, 0x93, 0x4b, 0x44, 0x3e, 0xfa, 0x47, 0x73, 0x43,
  0xd2, 0x3e, 0xad, 0x42, 0xa1, 0x42, 0x31, 0x3e, 0x84, 0x46, 0x89, 0x46,
  0x12, 0x47, 0x21, 0x42, 0x30, 0x47, 0x8e, 0x43, 0xd4, 0x36, 0x1b, 0x43,
  0x00, 0x47, 0xc9, 0x47, 0x27, 0x42, 0x75, 0x47, 0x6d, 0x43, 0xd1, 0x42,
  0x27, 0x3e, 0x19, 0x4b, 0x5f, 0x4b, 0x35, 0x47, 0x07, 0xb8, 0x09, 0x07,
  0xf8, 0xf1, 0xe3, 0xfa, 0x03, 0x11, 0x06, 0xd5, 0x81, 0x81, 0xe9, 0x7f,
  0x52, 0x97, 0x7f, 0xfa, 0x19, 0xf0, 0xde, 0xcd, 0xf3, 0xf1, 0x0b, 0x0b,
  0x16, 0x26, 0xd8, 0xf7, 0xf5, 0x19, 0x03, 0xde, 0xec, 0x83, 0xc6, 0x53,
  0x1e, 0x88, 0x7d, 0xc1, 0x03, 0xb6, 0xf1, 0xfb, 0xc0, 0x40, 0x98, 0x7f,
  0x7f, 0x57, 0xb2, 0xc8, 0x1a, 0x3c, 0x71, 0xb2, 0xe5, 0x0d, 0x24, 0x23,
  0xcf, 0x7f, 0x81, 0x4f, 0xf2, 0x00, 0xef, 0xf6, 0xe5, 0x04, 0x08, 0xfe,
  0x0a, 0x11, 0x2b, 0x16, 0x00, 0xff, 0x0b, 0xfa, 0x31, 0x11, 0x1a, 0xf3,
  0x42, 0x7f, 0x7f, 0x81, 0x7f, 0xd5, 0x0a, 0x00, 0x02, 0xd8, 0xf1, 0x01,
  0x60, 0xb2, 0x0c, 0x35, 0xd9, 0xe9, 0xf6, 0xff, 0x32, 0xfe, 0xf8, 0x03,
  0x7f, 0x15, 0x03, 0xe4, 0xed, 0xf1, 0x0c, 0x03, 0x34, 0x11, 0x06, 0xd6,
  0xa8, 0x7f, 0x7f, 0x7f, 0xb7, 0xe6, 0xf1, 0xbe, 0xe9, 0x01, 0x0e, 0x05,
  0xd7, 0x0e, 0x16, 0xc7, 0x03, 0xee, 0xf8, 0x0f, 0x65, 0xfe, 0x23, 0x0d,
  0xed, 0xea, 0x24, 0x35, 0xd1, 0x04, 0x14, 0xe1, 0xe3, 0x27, 0x17, 0x07,
  0x7f, 0x7f, 0x63, 0x7f, 0xef, 0x45, 0xf9, 0x1c, 0xc1, 0x17, 0xc0, 0xe9,
  0x0f, 0x14, 0x81, 0x1a, 0x2e, 0x1b, 0xdf, 0xfa, 0xf8, 0xf2, 0xa2, 0x19,
  0x45, 0xcf, 0x23, 0x0a, 0x00, 0xf1, 0x5f, 0xf4, 0x07, 0x7f, 0xfb, 0x7f,
  0x7f, 0x75, 0xfd, 0x0c, 0x12, 0x12, 0xe5, 0xe1, 0x06, 0xee, 0x7f, 0x21,
  0x24, 0x9c, 0xd5, 0x01, 0x04, 0xe3, 0xcc, 0xf2, 0xf9, 0xf6, 0xed, 0xd6,
  0xb6, 0x7f, 0xb3, 0xe5, 0x8f, 0x05, 0x3a, 0xe5, 0x7f, 0xe4, 0xbd, 0x15,
  0x71, 0xa0, 0x81, 0x7f, 0xc5, 0x37, 0x5e, 0xf2, 0xcc, 0xf6, 0xfa, 0xe9,
  0x48, 0xed, 0xea, 0x6f, 0x27, 0xe6, 0x1f, 0xf2, 0xce, 0x39, 0x01, 0x81,
  0x7f, 0x99, 0x1f, 0x89, 0x02, 0xfd, 0x21, 0x2c, 0x43, 0x81, 0x04, 0x89,
  0x20, 0x6c, 0x7f, 0x0e, 0x9d, 0x05, 0x00, 0x01, 0x0f, 0x20, 0x17, 0xe0,
  0xb1, 0xd5, 0x19, 0xcf, 0xe6, 0xff, 0x18, 0x2d, 0x26, 0xfa, 0xd7, 0xbe,
  0xd4, 0x08, 0xbb, 0x0f, 0xf9, 0xfc, 0xc1, 0x20, 0x38, 0xfe, 0xee, 0x81,
  0x81, 0x7f, 0x7f, 0x7d, 0xe5, 0xf9, 0xe4, 0xea, 0xfc, 0xf8, 0xf2, 0x61,
  0xed, 0x17, 0x60, 0xee, 0x1f, 0xf8, 0xef, 0xd2, 0xf8, 0xd0, 0xfd, 0xd1,
  0x0d, 0xb1, 0xca, 0xf1, 0xff, 0xe7, 0x0a, 0x17, 0x1c, 0x09, 0xc1, 0xcd,
  0x81, 0x7f, 0x81, 0x81, 0x32, 0xd6, 0xf6, 0x57, 0x0d, 0x05, 0x09, 0x42,
  0x2b, 0x01, 0xfe, 0xa1, 0xfa, 0x13, 0x1c, 0xf4, 0xe7, 0x23, 0x08, 0xfc,
  0x70, 0x7f, 0x0b, 0xa0, 0xda, 0x03, 0x0a, 0xf6, 0x81, 0xfa, 0x93, 0x81,
  0x27, 0x21, 0x81, 0xf2, 0x87, 0xf8, 0xf2, 0x35, 0x07, 0xf4, 0x2a, 0xce,
  0x64, 0x07, 0x2e, 0x31, 0xee, 0xf0, 0x0f, 0x1b, 0xf9, 0x58, 0x7f, 0x02,
  0xc0, 0xc5, 0xea, 0x63, 0xec, 0x0b, 0xec, 0x1d, 0x2c, 0x50, 0x32, 0x7f,
  0x7f, 0x81, 0xd6, 0x56, 0x1e, 0x39, 0x0b, 0xa4, 0x00, 0x45, 0xe0, 0x0c,
  0xc8, 0x76, 0x63, 0xc2, 0xf0, 0x11, 0x55, 0xe9, 0x25, 0x9a, 0x56, 0x1a,
  0xa7, 0x9e, 0x48, 0x96, 0x61, 0x9a, 0x89, 0x1b, 0xb9, 0x92, 0xe5, 0x1e,
  0x8f, 0x4e, 0x6c, 0x4f, 0xb6, 0x4f, 0x3a, 0x4f, 0xbc, 0x4f, 0x1c, 0x4a,
  0x6d, 0x4e, 0x94, 0x4e, 0xe1, 0xcb, 0x00, 0xd0, 0xec, 0x37, 0xe5, 0xe2,
  0xe6, 0xdd, 0x78, 0x01, 0x2d, 0x18, 0x35, 0xf6, 0xfa, 0xf5, 0x3d, 0xda,
  0x2c, 0xc9, 0x40, 0x26, 0xdf, 0x40, 0x81, 0x58, 0x2a, 0x45, 0xa8, 0x12,
  0x10, 0xef, 0x53, 0x52, 0xc5, 0x45, 0xe4, 0xd1, 0x62, 0xd8, 0xea, 0x1c,
  0x11, 0xdd, 0x29, 0x57, 0xfc, 0xf2, 0xfc, 0xfe, 0x2b, 0x16, 0x0a, 0x03,
  0x34, 0x07, 0x1f, 0x16, 0x08, 0x3c, 0x7c, 0x4e, 0xa0, 0xb4, 0xc7, 0x0e,
  0xdf, 0x4a, 0xed, 0x05, 0xd7, 0x09, 0xfb, 0x20, 0xce, 0xe7, 0x3a, 0xf2,
  0xc9, 0xed, 0xf1, 0x11, 0xa5, 0x06, 0xe4, 0x20, 0xeb, 0xed, 0x48, 0xb8,
  0x36, 0x46, 0x93, 0xe9, 0xcd, 0xf2, 0xb3, 0x1e, 0x2e, 0x29, 0xca, 0x01,
  0x08, 0xd8, 0xcc, 0x81, 0xbb, 0x38, 0xee, 0x2a, 0x26, 0xb3, 0x1f, 0x9a,
  0x22, 0x04, 0x04, 0xe0, 0xa4, 0xe7, 0xe7, 0x23, 0xd0, 0xfb, 0xc3, 0xcd,
  0xae, 0x0e, 0x1f, 0x7f, 0xe6, 0x8d, 0x54, 0xc4, 0xc6, 0xa0, 0xf0, 0x0a,
  0x40, 0x1f, 0xde, 0x1c, 0x1d, 0x32, 0xf0, 0xd4, 0x59, 0x52, 0xf5, 0xed,
  0x84, 0x1e, 0xf9, 0x5a, 0x19, 0x27, 0x7d, 0x64, 0x2f, 0xd9, 0x0c, 0x5a,
  0x7f, 0x10, 0xbb, 0x11, 0x8e, 0x23, 0xd1, 0xd6, 0x99, 0xc2, 0x7f, 0x0c,
  0x0d, 0x1d, 0x07, 0x12, 0x57, 0xd1, 0x7f, 0xa1, 0x16, 0x37, 0xb6, 0x9e,
  0x4d, 0x0d, 0x79, 0x1b, 0x3d, 0x4e, 0x16, 0xfe, 0x44, 0xf6, 0xa9, 0x39,
  0xd1, 0x06, 0x01, 0xc8, 0xfd, 0x0d, 0xc6, 0xd5, 0xfe, 0x06, 0x38, 0xe3,
  0xf4, 0x2f, 0x09, 0x2e, 0xeb, 0xfa, 0x21, 0x48, 0x7f, 0x5b, 0xc5, 0x71,
  0xaa, 0xb7, 0xad, 0xc8, 0x1f, 0xf1, 0x4f, 0x13, 0xd3, 0x09, 0xf1, 0xe9,
  0xbf, 0x3f, 0x73, 0xb3, 0x12, 0x0b, 0x81, 0xe9, 0x0c, 0x15, 0xe9, 0xd2,
  0xe8, 0xe9, 0xc6, 0x05, 0xc5, 0x1e, 0x15, 0x9e, 0xcb, 0x67, 0x36, 0xb7,
  0xd8, 0xf4, 0x00, 0x03, 0xf9, 0x04, 0x1d, 0x09, 0x01, 0xa0, 0xf8, 0x1c,
  0xe4, 0xf0, 0x0e, 0xfc, 0xf3, 0xd4, 0xd1, 0x11, 0x20, 0x52, 0xcc, 0xe9,
  0x15, 0xc0, 0xe3, 0x2a, 0x16, 0xde, 0x54, 0xf2, 0xec, 0x5d, 0xee, 0xe8,
  0x0f, 0xdf, 0xbf, 0x11, 0xf0, 0xa7, 0xf2, 0x44, 0x28, 0xf4, 0x1a, 0x09,
  0x30, 0x29, 0x37, 0x02, 0xfa, 0xf6, 0x5f, 0x00, 0xe6, 0x56, 0xc7, 0x61,
  0x26, 0x08, 0x0d, 0x91, 0x2f, 0x21, 0xef, 0x04, 0x1a, 0xd9, 0x1d, 0xc3,
  0xb1, 0xb8, 0x2c, 0x08, 0xd6, 0xed, 0xb7, 0x11, 0xc0, 0x2b, 0x34, 0x10,
  0x54, 0x39, 0x85, 0xc8, 0xa1, 0x3c, 0xe4, 0x95, 0x29, 0xde, 0xde, 0xb3,
  0x5c, 0x18, 0xe3, 0x38, 0xda, 0xd6, 0xb9, 0xcb, 0x9a, 0xb3, 0x49, 0x01,
  0xf0, 0x9b, 0x03, 0x1b, 0x3a, 0xf6, 0x49, 0xf7, 0xd5, 0x7f, 0xd7, 0xd4,
  0x52, 0xf5, 0x42, 0xeb, 0xf5, 0xfb, 0x00, 0x00, 0x00, 0x00, 0xf5, 0xfb,
  0x6c, 0x0e, 0x6c, 0x0e, 0x6a, 0x0f, 0xa6, 0x8a, 0x0c, 0x8b, 0xa3, 0x87,
  0x69, 0x00, 0xa5, 0x8e, 0x7a, 0x0a, 0x78, 0x92, 0x77, 0x06, 0x9f, 0x03,
  0x5b, 0x0f, 0x5c, 0x0b, 0x90, 0x82, 0xd6, 0x8b, 0x61, 0x06, 0xd5, 0x0e,
  0x2e, 0x8b, 0x5e, 0x12, 0xef, 0x0f, 0x1c, 0x0a, 0xd8, 0x00, 0x7e, 0x0e,
  0xa4, 0x8a, 0x00, 0x0e, 0xda, 0x07, 0xca, 0x81, 0x75, 0x0b, 0xad, 0x0a,
  0xf1, 0x13, 0x35, 0x86, 0xa7, 0x8a, 0x54, 0x8b, 0xa6, 0x8a, 0x5f, 0x0f,
  0xf4, 0x06, 0x61, 0x0a, 0x83, 0x0e, 0x66, 0x8a, 0xf0, 0x07, 0x74, 0x0e,
  0x19, 0x0e, 0xea, 0x12, 0x13, 0x92, 0xcc, 0x03, 0xdf, 0x12, 0x5b, 0x00,
  0x2b, 0x82, 0x9a, 0x07, 0x43, 0x47, 0x4f, 0x42, 0x50, 0x43, 0x02, 0x43,
  0x4f, 0x42, 0x36, 0x42, 0xe2, 0x47, 0xc6, 0x46, 0x4c, 0x43, 0xda, 0x42,
  0x83, 0x42, 0xff, 0x47, 0xa5, 0x42, 0x6a, 0x42, 0xca, 0x42, 0xbd, 0x47,
  0x4b, 0x42, 0x07, 0x42, 0x7a, 0x47, 0xcf, 0x42, 0x4b, 0x43, 0x32, 0x42,
  0x77, 0x42, 0x19, 0x47, 0x96, 0x42, 0x8e, 0x47, 0x8e, 0x42, 0x9c, 0x42,
  0x8f, 0x4b, 0x85, 0x43, 0x78, 0x42, 0xbf, 0x47, 0x02, 0x42, 0x1e, 0x42,
  0x44, 0x42, 0x47, 0x42, 0x10, 0x42, 0x3b, 0x42, 0x63, 0x47, 0xa0, 0x47,
  0x24, 0x43, 0x38, 0x46, 0x90, 0x47, 0xd0, 0x42, 0x5d, 0x46, 0xf0, 0x47,
  0x45, 0x42, 0x71, 0x42, 0x37, 0x2a, 0x7f, 0xe3, 0x09, 0x9d, 0x81, 0x04,
  0x81, 0xf4, 0xc6, 0xe1, 0x1f, 0x48, 0x56, 0xc1, 0x81, 0x13, 0xbd, 0xec,
  0x98, 0x1f, 0xc8, 0xf5, 0xdd, 0x81, 0x9b, 0x22, 0xbc, 0x81, 0x92, 0xbb,
  0x44, 0x5e, 0xaf, 0xd9, 0x3f, 0x29, 0x33, 0xfa, 0x26, 0x08, 0xba, 0xdc,
  0xe6, 0x81, 0xfa, 0x00, 0x2b, 0x07, 0xd9, 0xc2, 0x03, 0x18, 0xa6, 0x81,
  0x57, 0x0b, 0x07, 0x1f, 0xb9, 0xbf, 0x11, 0x6c, 0x3c, 0x22, 0xff, 0x0e,
  0xdd, 0x2f, 0xbf, 0x54, 0xe2, 0x7e, 0x1f, 0x45, 0xa3, 0xde, 0xed, 0xea,
  0x57, 0x28, 0x81, 0x1d, 0x5c, 0xd2, 0xbd, 0x0a, 0x00, 0xc0, 0x4a, 0x20,
  0xd8, 0xce, 0x06, 0x7f, 0x6e, 0xaf, 0x81, 0x1a, 0xc8, 0xd1, 0x7f, 0xe4,
  0x7f, 0xe1, 0xf4, 0x41, 0x8e, 0x73, 0x7f, 0x03, 0xfc, 0xe7, 0xb8, 0xee,
  0xf5, 0x81, 0xd6, 0xd2, 0x7f, 0x93, 0xbb, 0x21, 0x2a, 0x57, 0x96, 0x25,
  0x64, 0x23, 0xda, 0x1b, 0x2c, 0x7f, 0x40, 0x45, 0x16, 0xf0, 0x08, 0x05,
  0x08, 0x7a, 0x1b, 0x14, 0xdc, 0x13, 0x41, 0x81, 0xd2, 0x48, 0x37, 0x81,
  0xb0, 0xca, 0xa9, 0x1c, 0x65, 0x29, 0x81, 0x11, 0x3e, 0x81, 0x8e, 0xef,
  0x28, 0x3f, 0x1b, 0xb2, 0x7f, 0x0c, 0x2a, 0xfe, 0x81, 0x15, 0x24, 0xe5,
  0x1b, 0x1d, 0xf4, 0x5e, 0x27, 0x26, 0xf7, 0x76, 0x81, 0x67, 0x71, 0xea,
  0x17, 0xc4, 0xba, 0xed, 0xca, 0x2a, 0xf4, 0x02, 0x99, 0xc5, 0x81, 0x0c,
  0x29, 0xf9, 0xe1, 0xea, 0x7f, 0xb6, 0x13, 0x5f, 0x24, 0x41, 0x39, 0xfd,
  0xed, 0xff, 0xe1, 0xdb, 0x2c, 0x81, 0xd0, 0xc6, 0x04, 0x1c, 0xed, 0x04,
  0xed, 0x55, 0x81, 0x6b, 0xce, 0xbc, 0x42, 0x62, 0x6e, 0xea, 0x7f, 0xdb,
  0xf9, 0x1c, 0xe9, 0x74, 0x7f, 0xce, 0x32, 0xe1, 0xa9, 0x1a, 0x7f, 0xda,
  0x99, 0x03, 0x0c, 0xba, 0x81, 0x05, 0xe5, 0x02, 0x29, 0xbe, 0xca, 0x4e,
  0x30, 0x7f, 0x2a, 0x1e, 0x81, 0xd7, 0x6c, 0xfd, 0xd7, 0x52, 0x7f, 0xf5,
  0xa8, 0x04, 0x6b, 0xff, 0xda, 0x9a, 0xf0, 0x81, 0x31, 0xf8, 0x4e, 0xc7,
  0xfa, 0x63, 0x81, 0xcb, 0xff, 0xb0, 0x6c, 0x81, 0x1b, 0xe2, 0xe2, 0xde,
  0xf8, 0x5b, 0x6b, 0x1a, 0xab, 0xb9, 0xd1, 0x1e, 0xdd, 0x7f, 0x3d, 0x18,
  0xdb, 0x9f, 0x59, 0x2c, 0x2d, 0x2a, 0x81, 0x0a, 0xf3, 0x11, 0x0f, 0x56,
  0x45, 0xca, 0x0d, 0x20, 0xec, 0x3f, 0x7f, 0xfa, 0x41, 0x81, 0x97, 0xf1,
  0xe6, 0xb3, 0x1a, 0xbd, 0x09, 0x73, 0x7f, 0x01, 0xda, 0x34, 0xff, 0x60,
  0xd4, 0xd5, 0x30, 0x38, 0xf2, 0x3b, 0x20, 0xa9, 0x04, 0xfc, 0x02, 0x7f,
  0x13, 0x48, 0xd2, 0x0d, 0x8c, 0x0c, 0x0e, 0x9f, 0x7f, 0xc2, 0xfc, 0x30,
  0x0a, 0x41, 0xc0, 0x0f, 0x8f, 0x3c, 0x81, 0x20, 0x93, 0x81, 0xeb, 0xf4,
  0x81, 0x2a, 0xf1, 0x2d, 0x56, 0x9e, 0x7e, 0x1e, 0xc1, 0x9b, 0xbd, 0x1e,
  0x1a, 0x9b, 0xa3, 0x1b, 0xbd, 0x9a, 0x22, 0x1e, 0x1e, 0x9e, 0x42, 0x1e,
  0xe7, 0x9a, 0x39, 0x1e, 0x18, 0x9b, 0xcd, 0x1b, 0xeb, 0x96, 0xe0, 0x1b,
  0x23, 0x9e, 0xc0, 0x9a, 0xaf, 0x1e, 0x30, 0x9e, 0x7e, 0x9b, 0xe3, 0x96,
  0x06, 0x1e, 0x09, 0x9b, 0xcb, 0x1e, 0x12, 0x9e, 0xae, 0x9a, 0xad, 0x9a,
  0x1b, 0x1e, 0xe7, 0x9a, 0x58, 0x97, 0x31, 0x9a, 0x11, 0x1f, 0x60, 0x1e,
  0xaa, 0x82, 0x41, 0x9a, 0x63, 0x1e, 0x87, 0x1b, 0x6b, 0x06, 0x1d, 0x97,
  0x90, 0x1e, 0x92, 0x9b, 0x97, 0x1e, 0x4c, 0x9b, 0x02, 0x1e, 0xa2, 0x9a,
  0xf3, 0x1b, 0x8a, 0x9a, 0x4c, 0x9e, 0xce, 0x9a, 0x96, 0x1e, 0x4e, 0x1e,
  0xd8, 0x9a, 0x60, 0x97, 0x34, 0x1e, 0x42, 0x1b, 0x89, 0x8a, 0xb1, 0x9e,
  0x31, 0x9e, 0x3d, 0x1e, 0x19, 0x9a, 0x63, 0x9b, 0xe8, 0x9a, 0x6d, 0x1b,
  0x2f, 0x1e, 0x5c, 0x93, 0xab, 0x1e, 0x22, 0x9e, 0xad, 0x1b, 0xd9, 0x8f,
  0xec, 0x1b, 0x9d, 0x9b, 0x90, 0x9b, 0x97, 0x9b, 0x73, 0x1e, 0x50, 0x9e,
  0xec, 0x9a, 0xf9, 0x9a, 0xf3, 0x1b, 0x06, 0x9b, 0xa7, 0x9b, 0x9e, 0x96,
  0xb5, 0x1e, 0x9b, 0x9e, 0x2f, 0x9a, 0x1c, 0x06, 0x22, 0x1e, 0xd9, 0x9b,
  0xe4, 0x92, 0x0d, 0x1f, 0x73, 0x9a, 0x0c, 0x9e, 0xa6, 0x16, 0x02, 0x1e,
  0x76, 0x97, 0xb3, 0x9a, 0xf2, 0x4b, 0x0b, 0x46, 0xdb, 0x4a, 0x5c, 0x46,
  0xf7, 0x4b, 0x90, 0x4b, 0xb4, 0x4f, 0x6f, 0x42, 0xaf, 0x46, 0x0f, 0x4a,
  0xaa, 0x4a, 0x66, 0x4b, 0x0c, 0x4b, 0x3b, 0x46, 0x21, 0x4a, 0x05, 0x4b,
  0xb3, 0x46, 0x38, 0x4b, 0xca, 0x46, 0x39, 0x4a, 0x9c, 0x4a, 0xaa, 0x4b,
  0x31, 0x46, 0x84, 0x46, 0xd8, 0x4a, 0xf1, 0x4f, 0x6a, 0x4a, 0x45, 0x4a,
  0x38, 0x43, 0x6e, 0x4b, 0xd3, 0x4a, 0x6f, 0x42, 0xa9, 0x46, 0xfc, 0x47,
  0x73, 0x4b, 0x3f, 0x4b, 0x6c, 0x46, 0xf8, 0x4f, 0x3d, 0x46, 0x17, 0x46,
  0x0a, 0x4a, 0x94, 0x47, 0xf6, 0x46, 0x07, 0x4b, 0xf0, 0x46, 0x24, 0x4a,
  0xcc, 0x4f, 0x93, 0x4a, 0xbd, 0x2c, 0x81, 0x5c, 0x9a, 0x76, 0xa2, 0x7f,
  0xc5, 0x27, 0xe7, 0x34, 0xa6, 0x54, 0xbc, 0x5b, 0x81, 0x7f, 0x92, 0x7b,
  0xaf, 0x3d, 0xb5, 0x41, 0xbd, 0x34, 0x08, 0x34, 0xa9, 0x5b, 0xae, 0x3f,
  0xd1, 0x1d, 0xc8, 0x28, 0x8a, 0x54, 0xbe, 0x7f, 0xbc, 0x66, 0x81, 0x50,
  0xc9, 0x2e, 0xaf, 0x3c, 0xab, 0x7f, 0xc1, 0x4a, 0x81, 0x63, 0x88, 0x5e,
  0xac, 0x2e, 0xb3, 0x37, 0xef, 0x3c, 0xd6, 0x1c, 0xbe, 0x18, 0xab, 0x2c,
  0xc1, 0x08, 0xc6, 0x01, 0xc1, 0xb5, 0x57, 0x9a, 0xae, 0x98, 0x55, 0x9e,
  0xb4, 0xce, 0x2d, 0xa4, 0x81, 0x96, 0x7f, 0x90, 0x9d, 0x81, 0x7a, 0x81,
  0xaa, 0xbf, 0x49, 0x92, 0xd5, 0xbf, 0x48, 0xd5, 0xe6, 0xbc, 0x3a, 0xbf,
  0xe1, 0xde, 0x27, 0xc0, 0x5b, 0xb7, 0xdf, 0xc4, 0x5c, 0xa4, 0xac, 0x95,
  0x2c, 0xdd, 0xb4, 0xd1, 0x7d, 0x9a, 0xc0, 0x9d, 0x7f, 0x81, 0x81, 0x81,
  0x43, 0xd3, 0x98, 0xcf, 0x41, 0xb3, 0xe8, 0xde, 0x44, 0xba, 0xd1, 0xe1,
  0x2b, 0xf5, 0xc6, 0x03, 0x67, 0x42, 0x61, 0x8c, 0x7f, 0x5d, 0xd2, 0x81,
  0x57, 0x2f, 0xd1, 0xd7, 0x64, 0x61, 0x7f, 0x8a, 0x78, 0x7f, 0xc9, 0x84,
  0x50, 0x3b, 0xba, 0xdd, 0x32, 0x3b, 0x48, 0xda, 0x4a, 0x3f, 0xde, 0xc1,
  0x32, 0x23, 0xcb, 0x0c, 0x59, 0x81, 0x5b, 0xbf, 0x74, 0x97, 0x63, 0xac,
  0x1b, 0xd9, 0x17, 0xe8, 0x7f, 0x8f, 0x78, 0x9e, 0x7f, 0xba, 0x7f, 0x81,
  0x1b, 0xe5, 0x2c, 0xdd, 0x3e, 0xa5, 0x3e, 0xe9, 0x4c, 0xd1, 0x47, 0xc1,
  0x04, 0x12, 0x19, 0xf5, 0x9a, 0xaa, 0x60, 0x64, 0xc2, 0x9f, 0x77, 0x4f,
  0xcf, 0xa5, 0x4b, 0xff, 0x81, 0x8c, 0x57, 0x7f, 0xc0, 0x81, 0x7f, 0x5e,
  0xb0, 0xa3, 0x49, 0x1f, 0xb9, 0xd9, 0x1e, 0x3e, 0x9e, 0xcb, 0x21, 0x3b,
  0xc9, 0xcd, 0x23, 0x34, 0x9c, 0x95, 0xbb, 0x04, 0x81, 0xa3, 0xb1, 0x49,
  0xb4, 0xb9, 0xae, 0x5c, 0x16, 0x85, 0xac, 0x2e, 0x08, 0x81, 0x89, 0x7f,
  0x0c, 0xb3, 0x81, 0x65, 0x56, 0x96, 0xd0, 0x00, 0x61, 0x9a, 0xbd, 0x40,
  0x41, 0xd1, 0xb6, 0x47, 0x42, 0xa4, 0x32, 0xad, 0x74, 0x15, 0x5d, 0x82,
  0x25, 0x2a, 0x4b, 0x9a, 0x54, 0x81, 0x4d, 0xbc, 0x7f, 0x19, 0x7f, 0x81,
  0x1f, 0x2f, 0x60, 0x9c, 0x22, 0xaf, 0x27, 0xe9, 0x31, 0xfa, 0x53, 0xdf,
  0x05, 0x29, 0x3b, 0xe5, 0xc8, 0x8b, 0x58, 0xa4, 0x93, 0x8b, 0x67, 0xb7,
  0xd0, 0x9c, 0x25, 0xa2, 0xc1, 0x81, 0x70, 0x94, 0x81, 0x91, 0x7f, 0x81,
  0xce, 0x8f, 0x24, 0x96, 0xe3, 0xf9, 0x37, 0xbc, 0xd7, 0xeb, 0x3c, 0xba,
  0xf4, 0xcd, 0x06, 0xbd, 0xeb, 0xa8, 0x7f, 0x96, 0x92, 0x81, 0x51, 0xa1,
  0x9e, 0xbe, 0x3d, 0x91, 0x94, 0x56, 0x7b, 0xaa, 0x8d, 0x63, 0x55, 0x9e,
  0xc1, 0x34, 0x39, 0x81, 0x81, 0xd0, 0x41, 0xd6, 0xce, 0x9e, 0x34, 0xaf,
  0xf5, 0xe2, 0x1e, 0xcc, 0x53, 0x48, 0x88, 0xa7, 0x7f, 0x4f, 0x81, 0xa9,
  0x4d, 0x36, 0xd5, 0xc4, 0xd4, 0x5f, 0x84, 0x83, 0xbb, 0x7f, 0x9d, 0x81,
  0xe4, 0x4c, 0xc5, 0xbd, 0xa0, 0x4b, 0xc3, 0xb6, 0x8e, 0x73, 0xe2, 0xba,
  0xcc, 0x4d, 0xff, 0xde, 0xc9, 0x1b, 0xcc, 0x96, 0x6d, 0x17, 0x4d, 0x1a,
  0x12, 0x12, 0x57, 0x13, 0xe6, 0x1e, 0xc9, 0x87, 0x03, 0x8f, 0xba, 0x17,
  0x4f, 0x1a, 0xd0, 0x1a, 0x8e, 0x8e, 0x0c, 0x93, 0x62, 0x07, 0x28, 0x07,
  0x26, 0x4b, 0x02, 0x4b, 0x13, 0x4a, 0xd1, 0x4a, 0x8c, 0x4f, 0x8c, 0x4a,
  0xe2, 0x4f, 0xf1, 0x4f, 0xeb, 0x4f, 0x26, 0x4f, 0x5b, 0x4b, 0x50, 0x4a,
  0xc1, 0x4f, 0x8a, 0x4f, 0xae, 0x4a, 0xae, 0x4f, 0x18, 0x2d, 0x1e, 0xce,
  0xc7, 0x10, 0xba, 0xe0, 0x03, 0x0f, 0x42, 0xdb, 0x28, 0xfd, 0xe7, 0xf4,
  0x6c, 0xfa, 0x0c, 0xb9, 0x0a, 0xf0, 0xc9, 0x05, 0x41, 0x05, 0x0f, 0x3b,
  0xa8, 0xf4, 0xea, 0x07, 0x50, 0x4e, 0xd7, 0x3b, 0x09, 0x57, 0xbb, 0x18,
  0xf4, 0xad, 0x13, 0x20, 0x1c, 0x68, 0x17, 0xec, 0x58, 0x52, 0x37, 0x07,
  0xe7, 0x2c, 0x17, 0xe4, 0x02, 0xde, 0x6d, 0xc1, 0xbb, 0xc6, 0x18, 0x28,
  0xf0, 0x70, 0x04, 0x2e, 0xf4, 0xe5, 0xcf, 0x26, 0x5c, 0x5c, 0xb3, 0x17,
  0x1f, 0xcf, 0x18, 0xea, 0x58, 0xf0, 0x94, 0x21, 0x43, 0x3b, 0x28, 0x56,
  0x08, 0x3d, 0x79, 0x72, 0x61, 0x79, 0xc2, 0xb2, 0xd4, 0x30, 0xe9, 0x36,
  0x48, 0xe0, 0xe3, 0xee, 0x7b, 0xcd, 0x7f, 0x5f, 0xcf, 0x05, 0xfc, 0x29,
  0x35, 0xea, 0x1f, 0xf2, 0x32, 0xf2, 0x1c, 0x02, 0x34, 0x32, 0xd4, 0x30,
  0x96, 0x1a, 0xee, 0xea, 0x14, 0x5f, 0x37, 0xb0, 0xe8, 0xdc, 0xef, 0x15,
  0xab, 0xf2, 0xe7, 0x23, 0xe1, 0xbb, 0x20, 0x81, 0xa2, 0x8d, 0xf9, 0xa1,
  0xd7, 0x7f, 0xde, 0x28, 0x36, 0xdf, 0xb0, 0x53, 0x9f, 0x69, 0x04, 0x7f,
  0xad, 0x59, 0xfd, 0x39, 0xc5, 0x31, 0x95, 0xc6, 0x54, 0xb2, 0xd8, 0xa1,
  0x04, 0xf9, 0xeb, 0x04, 0xef, 0x17, 0xd5, 0xdc, 0x12, 0xf8, 0xb2, 0xf7,
  0x20, 0xc7, 0xc3, 0x2b, 0xc2, 0x34, 0x0e, 0x26, 0x52, 0x33, 0x36, 0x39,
  0xcf, 0xda, 0x39, 0x47, 0x19, 0xdf, 0x36, 0xb3, 0xce, 0x58, 0x71, 0x3b,
  0xb1, 0x7f, 0x9d, 0x76, 0x23, 0x04, 0xbd, 0xd4, 0xab, 0x5d, 0x4e, 0xf6,
  0xef, 0xa3, 0xdb, 0xac, 0xd4, 0xc3, 0xf2, 0x63, 0xf5, 0xea, 0x21, 0xe1,
  0x35, 0x3a, 0xc4, 0x15, 0xfa, 0xd7, 0x22, 0x34, 0xc9, 0xc5, 0x16, 0x47,
  0xf7, 0x16, 0x16, 0xe9, 0x62, 0x32, 0xe5, 0xf4, 0x22, 0x29, 0xf8, 0x00,
  0xe7, 0x05, 0xb6, 0x34, 0x10, 0xcc, 0xda, 0x3e, 0x20, 0xdc, 0x41, 0x4b,
  0x36, 0xe1, 0x6c, 0x18, 0x24, 0xd8, 0x07, 0xf4, 0xd4, 0xf8, 0x31, 0x09,
  0x59, 0xc3, 0x81, 0xf6, 0xeb, 0x09, 0x06, 0xf5, 0x35, 0x81, 0xd7, 0x12,
  0x1b, 0xbf, 0x7f, 0xd0, 0xc0, 0x0a, 0x05, 0xe8, 0xd0, 0xcb, 0x0c, 0x31,
  0xf8, 0x14, 0xed, 0x26, 0xcf, 0xfb, 0xa4, 0x07, 0x61, 0x29, 0xfa, 0xfe,
  0x08, 0xca, 0x7c, 0x2a, 0x16, 0xde, 0x33, 0xfa, 0xeb, 0x23, 0xd1, 0xf5,
  0x27, 0x26, 0x3f, 0xee, 0x11, 0x0a, 0xf0, 0x04, 0xd8, 0xf7, 0x07, 0x3d,
  0x55, 0xe6, 0x1f, 0x33, 0x0b, 0x30, 0x34, 0xe3, 0x0d, 0x23, 0x22, 0xf5,
  0xf7, 0xc6, 0xbd, 0xef, 0x15, 0x34, 0x26, 0x1b, 0x09, 0xa5, 0x6d, 0xca,
  0x1b, 0x18, 0xeb, 0xe3, 0xd7, 0x61, 0xf2, 0xc4, 0xf1, 0x04, 0xd7, 0x1c,
  0x47, 0x70, 0x1d, 0xf6, 0x31, 0x46, 0xdf, 0x01, 0xea, 0xad, 0x30, 0xcc,
  0x0c, 0xe0, 0x16, 0xd4, 0xee, 0x1c, 0xe1, 0x06, 0xd9, 0x28, 0xf6, 0x2e,
  0xc4, 0xf8, 0x2e, 0x16, 0xda, 0x84, 0xd0, 0x89, 0x31, 0x1c, 0xd6, 0x0d,
  0xbe, 0x08, 0x28, 0x12, 0x48, 0xcf, 0x41, 0xe2, 0x29, 0x4e, 0xd4, 0x38,
  0x1e, 0x2c, 0xb8, 0xd8, 0x29, 0x38, 0x09, 0x02, 0xd4, 0xce, 0x10, 0xfc,
  0xfc, 0x0a, 0x3c, 0x09, 0xdd, 0x11, 0xaf, 0xec, 0x5f, 0xfe, 0x05, 0x1e,
  0xd2, 0x91, 0x15, 0x08, 0x08, 0xe0, 0xde, 0xf0, 0x30, 0x2a, 0x3f, 0xf8,
  0x0b, 0x1a, 0x81, 0xc0, 0xe7, 0xe0, 0x81, 0x0e, 0x8c, 0x0a, 0x7f, 0xbd,
  0xeb, 0x3a, 0x31, 0x2f, 0x14, 0x58, 0xf2, 0x41, 0xe8, 0xf5, 0x16, 0x21,
  0x16, 0xc3, 0x60, 0xf0, 0xda, 0xef, 0x30, 0xcf, 0x3f, 0x19, 0xf3, 0xdb,
  0x45, 0xa4, 0x27, 0x24, 0x3d, 0x28, 0x7f, 0x0a, 0xf1, 0xc1, 0x03, 0xd7,
  0x37, 0xf6, 0xdb, 0xdf, 0x09, 0x00, 0xd0, 0x6e, 0x0b, 0x94, 0x13, 0x36,
  0xbf, 0x7f, 0x08, 0x38, 0xf6, 0x1b, 0xd6, 0xc9, 0x2a, 0x5f, 0x46, 0x8c,
  0x7c, 0x18, 0x07, 0x9d, 0x2d, 0x99, 0x1f, 0xff, 0x11, 0x31, 0xf8, 0xd9,
  0x0d, 0x33, 0xf0, 0x1c, 0xbe, 0x31, 0x34, 0xdb, 0x11, 0xf3, 0x1d, 0x1f,
  0xfb, 0xed, 0x62, 0x02, 0xeb, 0x2b, 0xd9, 0xaf, 0x4d, 0xaa, 0x6d, 0x14,
  0x4c, 0xd0, 0x1c, 0xfd, 0x1e, 0xcf, 0xc3, 0xc4, 0x4d, 0xf6, 0xc4, 0xe7,
  0xee, 0xb2, 0xea, 0x4d, 0xd3, 0x2c, 0x06, 0x68, 0x27, 0x15, 0xea, 0x25,
  0xfe, 0xfa, 0x1d, 0xe9, 0xb8, 0xfa, 0xe2, 0xff, 0xfb, 0x7f, 0xb3, 0x07,
  0x2c, 0xc4, 0xd4, 0x39, 0x81, 0xe6, 0xc2, 0x93, 0x31, 0x4a, 0xd5, 0xe8,
  0x25, 0x08, 0xd9, 0x03, 0x06, 0x1d, 0xfd, 0x3b, 0x0c, 0x1c, 0xf5, 0x46,
  0xce, 0x92, 0x8f, 0x08, 0xd6, 0xe8, 0xa6, 0x10, 0xe1, 0x13, 0x15, 0x01,
  0x0c, 0xbb, 0x0a, 0x57, 0xd2, 0x1f, 0xfe, 0x7f, 0x50, 0x13, 0xfe, 0x1c,
  0x12, 0xfd, 0xcf, 0xf7, 0x3d, 0x44, 0x25, 0xdb, 0x38, 0xed, 0xaf, 0x37,
  0x7c, 0x2a, 0x50, 0xf2, 0xc0, 0xf9, 0x7f, 0xf6, 0xff, 0x18, 0x72, 0x0e,
  0xeb, 0xd3, 0xcd, 0xe8, 0xf9, 0xcb, 0xdb, 0x14, 0x1d, 0x56, 0x6a, 0x21,
  0xce, 0xf1, 0x19, 0xf8, 0x20, 0xcb, 0x4c, 0xc2, 0xb7, 0x0c, 0xf1, 0x3f,
  0x9f, 0x17, 0x3f, 0xe9, 0x12, 0x08, 0x4b, 0x6a, 0xe5, 0xfd, 0x16, 0x5c,
  0xac, 0xf9, 0x18, 0xe8, 0x1e, 0xe5, 0x2d, 0x06, 0xe8, 0x03, 0x24, 0x0b,
  0xf7, 0x32, 0x4a, 0x2b, 0xee, 0xd8, 0x69, 0xee, 0xcb, 0xe4, 0x13, 0x09,
  0xfb, 0xb6, 0xd7, 0x55, 0x2c, 0x45, 0xca, 0x18, 0x0a, 0x33, 0x1d, 0x24,
  0xd1, 0xf6, 0x4e, 0xfa, 0x19, 0xf7, 0xdd, 0xd7, 0x3a, 0xda, 0x6d, 0xc2,
  0xd2, 0xdb, 0xca, 0x37, 0xe6, 0xe3, 0xf0, 0x07, 0x67, 0x12, 0x71, 0x0e,
  0x31, 0x0f, 0xe6, 0x0f, 0xf9, 0x8a, 0xd7, 0x13, 0xdf, 0x8a, 0x02, 0x16,
  0x9b, 0x12, 0xf4, 0x8a, 0x17, 0x16, 0x1a, 0x0b, 0x9f, 0x03, 0xf9, 0x06,
  0xaa, 0x8f, 0x75, 0x8f, 0xf1, 0x8a, 0x60, 0x0a, 0x39, 0x86, 0x04, 0x8a,
  0x46, 0x87, 0x4b, 0x12, 0x10, 0x0f, 0x90, 0x02, 0xd0, 0x8f, 0x23, 0x13,
  0x72, 0x06, 0xe0, 0x8f, 0x1f, 0x87, 0x30, 0x0a, 0x63, 0x0a, 0x52, 0x8e,
  0xd7, 0x8a, 0x3a, 0x0a, 0xde, 0x07, 0x4f, 0x0f, 0xb8, 0x0e, 0x47, 0x8e,
  0xd4, 0x00, 0x6f, 0x13, 0x67, 0x17, 0x3f, 0x07, 0x91, 0x06, 0x32, 0x8e,
  0x9b, 0x80, 0xbc, 0x0f, 0xb1, 0x12, 0x4e, 0x16, 0xd8, 0x8f, 0x82, 0x12,
  0xef, 0x87, 0x7c, 0x0e, 0x21, 0x0e, 0x07, 0x93, 0x5a, 0x0f, 0x78, 0x0f,
  0x4d, 0x0e, 0x76, 0x16, 0xeb, 0x12, 0x1c, 0x8f, 0x4e, 0x0f, 0xde, 0x0f,
  0x60, 0x07, 0xc7, 0x8f, 0x0f, 0x16, 0xdc, 0x0e, 0x5d, 0x0e, 0xc8, 0x83,
  0xbc, 0x12, 0x18, 0x12, 0x29, 0x8e, 0x9a, 0x07, 0x51, 0x8e, 0x2e, 0x12,
  0x10, 0x13, 0xc5, 0x0b, 0x44, 0x87, 0xeb, 0x16, 0x3b, 0x0f, 0x9d, 0x0a,
  0x7e, 0x0e, 0xb5, 0x12, 0x82, 0x12, 0x69, 0x0e, 0xa0, 0x12, 0xd0, 0x13,
  0x1b, 0x13, 0xb7, 0x01, 0x99, 0x0b, 0x28, 0x0a, 0xbf, 0x07, 0x5b, 0x0a,
  0x27, 0x07, 0xd5, 0x00, 0x36, 0x16, 0x71, 0x0e, 0x7c, 0x43, 0x83, 0x46,
  0x01, 0x43, 0x02, 0x43, 0x90, 0x47, 0x58, 0x4a, 0x45, 0x42, 0x18, 0x47,
  0xd4, 0x4b, 0x05, 0x47, 0x58, 0x4a, 0x80, 0x47, 0x63, 0x42, 0x21, 0x3e,
  0x4f, 0x42, 0xd7, 0x46, 0xef, 0x42, 0x39, 0x42, 0x11, 0x42, 0x2d, 0x46,
  0x67, 0x43, 0xcb, 0x4b, 0x32, 0x42, 0x71, 0x42, 0xfb, 0x4b, 0x87, 0x47,
  0x35, 0x42, 0x0e, 0x43, 0x97, 0x47, 0x26, 0x42, 0x8c, 0x47, 0x6f, 0x46,
  0xf7, 0x47, 0x65, 0x46, 0xe1, 0x47, 0x1b, 0x42, 0x66, 0x42, 0x88, 0x43,
  0x08, 0x47, 0x17, 0x42, 0x3a, 0x4a, 0x7f, 0x42, 0x82, 0x47, 0x8d, 0x47,
  0xbb, 0x46, 0x08, 0x46, 0x20, 0x46, 0x3c, 0x4b, 0x6c, 0x42, 0x7a, 0x42,
  0xea, 0x42, 0x2b, 0x47, 0x87, 0x47, 0xd0, 0x47, 0xa3, 0x4b, 0xa2, 0x43,
  0xaa, 0x46, 0xd6, 0x4b, 0x9e, 0x47, 0x54, 0x47, 0x9e, 0x42, 0x22, 0x4b,
  0x75, 0x42, 0xa6, 0x42, 0xe3, 0x4a, 0x3b, 0x4b, 0x8c, 0x43, 0x4d, 0x42,
  0x45, 0x46, 0xf7, 0x46, 0x3c, 0x42, 0x0b, 0x42, 0x39, 0x42, 0x94, 0x46,
  0x8a, 0x42, 0xb8, 0x42, 0x8e, 0x42, 0xaa, 0x46, 0x08, 0x42, 0xe8, 0x47,
  0xbd, 0x47, 0xa2, 0x42, 0xa6, 0x47, 0x00, 0x47, 0xc0, 0x46, 0x67, 0x46,
  0xaa, 0x47, 0x1b, 0x43, 0xd6, 0x42, 0x2d, 0x43, 0xa6, 0x47, 0x4a, 0x4b,
  0x1e, 0x47, 0x63, 0x42, 0xda, 0x46, 0xa3, 0x46, 0x03, 0x0e, 0x06, 0x41,
  0xdd, 0x05, 0xaa, 0xed, 0xdf, 0x4e, 0x5d, 0x05, 0x7f, 0x06, 0x30, 0xff,
  0xb1, 0x11, 0xeb, 0x00, 0x8a, 0xff, 0x2c, 0xfd, 0x81, 0x17, 0xe7, 0x20,
  0x0f, 0x7f, 0x48, 0xc3, 0x81, 0xe7, 0x57, 0x27, 0x65, 0x7f, 0xf7, 0xf9,
  0x29, 0x52, 0xf8, 0x23, 0x14, 0x13, 0xf4, 0x07, 0x9e, 0x0c, 0xd1, 0xcb,
  0x7c, 0x31, 0x21, 0x0b, 0xfc, 0xa9, 0x66, 0x12, 0x44, 0x3b, 0x71, 0xee,
  0x1c, 0x65, 0xed, 0x28, 0xeb, 0x1a, 0xcd, 0x14, 0x29, 0xfe, 0x41, 0xe5,
  0x35, 0x32, 0xdd, 0xec, 0x02, 0x17, 0xdb, 0xaa, 0xbe, 0x0e, 0xb9, 0xf4,
  0xf1, 0xe1, 0xae, 0x2f, 0x21, 0x0c, 0x2b, 0x38, 0x14, 0xfd, 0x4a, 0x60,
  0xb7, 0x29, 0xb7, 0xcd, 0x28, 0x81, 0xff, 0x05, 0xdb, 0x35, 0xea, 0x37,
  0xd8, 0x16, 0xca, 0x7f, 0xbb, 0x40, 0x81, 0xd6, 0x24, 0x08, 0xd6, 0x0d,
  0x5c, 0x35, 0xe3, 0x12, 0x9d, 0xd4, 0xba, 0x4e, 0xe5, 0x81, 0xcc, 0x49,
  0xcc, 0xaf, 0xb4, 0x57, 0xc8, 0xa8, 0xeb, 0x03, 0x00, 0x98, 0xb3, 0x56,
  0xb0, 0xe6, 0xdd, 0xf5, 0x81, 0xd6, 0xc8, 0xe8, 0x05, 0x81, 0x71, 0xb9,
  0xe9, 0x5d, 0xc6, 0xbb, 0xbe, 0xb2, 0x02, 0x5a, 0x9a, 0x40, 0x15, 0xb4,
  0xf4, 0x7f, 0x22, 0x16, 0x95, 0x8a, 0x16, 0x42, 0xe7, 0x08, 0x1f, 0x12,
  0xe0, 0x26, 0xd4, 0x97, 0xb5, 0xd8, 0xef, 0x33, 0x07, 0xf9, 0x58, 0x38,
  0x39, 0x33, 0x23, 0x5e, 0x07, 0xb8, 0x31, 0xd2, 0x26, 0x07, 0x07, 0xa2,
  0x59, 0x4f, 0xc1, 0x7f, 0xf4, 0x7f, 0xfc, 0xe6, 0x46, 0xe0, 0x42, 0xe1,
  0x21, 0xde, 0xa6, 0xce, 0x7f, 0x2f, 0x95, 0x0f, 0x91, 0x17, 0x14, 0xdc,
  0x14, 0x7f, 0xd5, 0x3b, 0x0d, 0x3d, 0xa2, 0x41, 0x1c, 0xbf, 0x00, 0x09,
  0x27, 0x1e, 0x0a, 0xf6, 0x2e, 0xcd, 0xcf, 0x9c, 0x4c, 0xd8, 0xd6, 0xb0,
  0xe8, 0xe6, 0x06, 0xd1, 0xec, 0x05, 0x29, 0xd1, 0x5c, 0x07, 0xb5, 0x88,
  0xe9, 0xba, 0xe5, 0x9c, 0xef, 0x25, 0x58, 0x93, 0x3d, 0xb8, 0x81, 0x21,
  0x20, 0x0c, 0x58, 0xcf, 0x99, 0xcf, 0xe0, 0x40, 0x16, 0x22, 0xf6, 0xf5,
  0x27, 0xf2, 0xda, 0x16, 0xd6, 0xcf, 0x4a, 0xdf, 0xae, 0x2c, 0xe4, 0x11,
  0x59, 0xfe, 0xee, 0x45, 0x5d, 0x06, 0x5a, 0x63, 0xec, 0x0f, 0x41, 0x04,
  0x1f, 0x31, 0x09, 0xe4, 0x39, 0x81, 0x33, 0xed, 0x49, 0xd9, 0x25, 0x5e,
  0x26, 0x10, 0x0c, 0x65, 0x48, 0xdb, 0xee, 0x81, 0x81, 0xa0, 0x0a, 0xb9,
  0xb9, 0x8c, 0x01, 0x13, 0x1b, 0x7f, 0xff, 0x01, 0x38, 0xff, 0xe4, 0x81,
  0xf3, 0x0e, 0xb4, 0xb7, 0x38, 0xad, 0xdc, 0x81, 0x0d, 0x48, 0xe2, 0x81,
  0xec, 0xfd, 0xd4, 0xc3, 0xe5, 0x77, 0xed, 0xed, 0x4e, 0x99, 0x0d, 0x1d,
  0xed, 0x06, 0x3b, 0xf0, 0xc8, 0x66, 0x1d, 0x40, 0x11, 0xe6, 0x28, 0x1b,
  0x71, 0xec, 0x75, 0x68, 0xe2, 0x13, 0x14, 0x2c, 0x0d, 0xed, 0xf9, 0xc4,
  0xcb, 0x19, 0x03, 0xfd, 0xd4, 0x81, 0xe7, 0x58, 0x17, 0xca, 0xcd, 0x19,
  0x81, 0xd4, 0xe8, 0x5f, 0x1b, 0xae, 0x04, 0xcf, 0x2b, 0xf5, 0x0d, 0x31,
  0xc9, 0x7a, 0xef, 0x2f, 0xd0, 0x05, 0xa5, 0x0b, 0x06, 0xee, 0x81, 0xe5,
  0xd9, 0xf9, 0x5a, 0x03, 0x81, 0x03, 0x1e, 0xe7, 0xd1, 0x02, 0xdb, 0xeb,
  0x19, 0x7f, 0xa1, 0x58, 0x81, 0x5b, 0x44, 0xe1, 0xc5, 0xd6, 0xaa, 0x1e,
  0x9d, 0xe2, 0xa4, 0xca, 0xef, 0xf1, 0x08, 0xf6, 0x45, 0x25, 0x94, 0x34,
  0x11, 0xef, 0x02, 0xf9, 0xbd, 0xbf, 0xf0, 0xa7, 0xef, 0xd5, 0x5b, 0xd1,
  0xf0, 0x39, 0x51, 0x06, 0xfe, 0x16, 0x27, 0x81, 0xa8, 0x2f, 0xe3, 0x7f,
  0xfb, 0xcc, 0xd0, 0xf0, 0x15, 0xe5, 0xe9, 0x3f, 0xe4, 0x30, 0xf7, 0x46,
  0xdd, 0xc9, 0xe7, 0x4c, 0x81, 0x99, 0x97, 0x0a, 0xdb, 0xf8, 0xae, 0x24,
  0xff, 0x1f, 0xf7, 0x0e, 0x2e, 0x01, 0xc9, 0x0b, 0xfa, 0xfa, 0xe1, 0x34,
  0x81, 0x1f, 0xf4, 0xe0, 0x3c, 0x7f, 0x29, 0xb0, 0x24, 0xfa, 0x08, 0x76,
  0xb6, 0xca, 0x17, 0xe8, 0xa8, 0xb3, 0x2c, 0x00, 0xad, 0xcb, 0x26, 0xfe,
  0x81, 0x01, 0x38, 0xf1, 0x7f, 0xeb, 0x12, 0x3f, 0x3a, 0xae, 0xdf, 0xed,
  0xb1, 0xc5, 0x93, 0xcd, 0xfc, 0x45, 0x50, 0xc0, 0x73, 0x2c, 0xaa, 0xcb,
  0x81, 0x0f, 0xbe, 0xc2, 0x1f, 0x81, 0xea, 0x19, 0xfb, 0x42, 0x0b, 0xf2,
  0xde, 0x20, 0xc5, 0xcd, 0xe1, 0xe2, 0xf1, 0x40, 0xae, 0xc6, 0x1a, 0x4e,
  0xc8, 0x42, 0x2d, 0xc2, 0x47, 0x54, 0x10, 0xfd, 0xec, 0x4f, 0x34, 0x40,
  0xca, 0x0d, 0x2b, 0x6f, 0xfb, 0x21, 0x45, 0x3c, 0x1a, 0x02, 0x05, 0x09,
  0x38, 0xcc, 0x16, 0xb5, 0xd7, 0xbf, 0x72, 0x07, 0xe9, 0x71, 0x51, 0x7f,
  0x65, 0x43, 0x62, 0x6d, 0xfd, 0x07, 0x1d, 0x4d, 0x11, 0x8d, 0x2a, 0xd3,
  0xd4, 0x8b, 0xf6, 0x3f, 0xf9, 0xa8, 0xcb, 0xaa, 0x0f, 0xe3, 0xd9, 0x1a,
  0x52, 0xc3, 0xfe, 0x21, 0xb6, 0x9d, 0x02, 0x7f, 0xd4, 0xd6, 0xf5, 0x1c,
  0xac, 0x55, 0xeb, 0x2d, 0x7f, 0x11, 0x34, 0x17, 0x79, 0xf8, 0xbc, 0x4d,
  0x13, 0x50, 0x57, 0xf9, 0x81, 0x26, 0xf5, 0xdc, 0x7f, 0x96, 0x04, 0x6b,
  0xe0, 0xf8, 0x13, 0x30, 0xb9, 0x63, 0xf7, 0x00, 0xc9, 0x2a, 0xa5, 0x15,
  0xf5, 0xb3, 0xa9, 0xf1, 0xc9, 0xc5, 0x81, 0xa3, 0xde, 0x81, 0xa3, 0x45,
  0x07, 0xc9, 0x2c, 0xdf, 0xde, 0xf9, 0x25, 0x60, 0xf0, 0x66, 0x42, 0x36,
  0xdf, 0xf3, 0x7f, 0xe8, 0x12, 0x1b, 0x40, 0x81, 0xf4, 0x09, 0xf4, 0x1a,
  0x6a, 0x07, 0xd7, 0x0a, 0xea, 0x23, 0x1c, 0x4f, 0x07, 0x04, 0x04, 0x28,
  0xdb, 0xcf, 0x58, 0x83, 0xb7, 0x52, 0xfa, 0x59, 0x1c, 0xf9, 0x99, 0xb6,
  0x3e, 0x20, 0xf0, 0x43, 0x01, 0xfc, 0xfa, 0x13, 0xf5, 0xfc, 0xf9, 0x81,
  0x02, 0xec, 0x04, 0x81, 0xd6, 0xd7, 0x16, 0xeb, 0x53, 0x5a, 0x21, 0x02,
  0xf5, 0x02, 0xd6, 0x46, 0x1c, 0xc7, 0x11, 0x1d, 0x14, 0x0b, 0x4e, 0x46,
  0x81, 0xed, 0xf8, 0xcf, 0xe2, 0x33, 0x2e, 0xc6, 0x6f, 0x97, 0x0b, 0xbd,
  0xd3, 0x81, 0x08, 0x9b, 0x81, 0xb2, 0x9a, 0x8c, 0xeb, 0x0d, 0x27, 0x0c,
  0x1a, 0xac, 0xf6, 0xfe, 0xb5, 0x7f, 0xc3, 0x57, 0x29, 0x07, 0x14, 0x2b,
  0xfc, 0xef, 0x1a, 0xc0, 0x40, 0x0c, 0x7c, 0xb3, 0xee, 0x53, 0xae, 0x3f,
  0xe3, 0x09, 0x56, 0x2f, 0xf5, 0x7f, 0x10, 0x4d, 0xba, 0x0d, 0xc9, 0x81,
  0xd6, 0xe6, 0x3d, 0x7d, 0xe7, 0xc1, 0x0b, 0x03, 0x3b, 0x66, 0x0a, 0x18,
  0x2e, 0xff, 0xc9, 0x6a, 0xca, 0xe2, 0x0a, 0xa1, 0xb4, 0xe6, 0x34, 0x1b,
  0xed, 0x16, 0xfc, 0x33, 0x0a, 0x98, 0x81, 0x1d, 0x38, 0x36, 0x5f, 0xbd,
  0x29, 0xc9, 0x1e, 0xb5, 0xe1, 0x40, 0x1c, 0xd3, 0x23, 0xeb, 0x13, 0x09,
  0x23, 0x25, 0x08, 0xed, 0xf5, 0x4c, 0xdb, 0x0e, 0x22, 0xf3, 0xb1, 0x81,
  0x96, 0x19, 0xed, 0x46, 0x5d, 0xf7, 0x02, 0x18, 0x5f, 0x22, 0x1e, 0x7f,
  0xe0, 0x98, 0xf8, 0x23, 0x1e, 0xfd, 0x0f, 0xdf, 0x8b, 0x81, 0xe7, 0xdf,
  0xb6, 0x7f, 0xe0, 0x04, 0xeb, 0xd0, 0x4a, 0xed, 0x6b, 0x23, 0x7c, 0x17,
  0x12, 0xe0, 0x14, 0x7f, 0xf1, 0x72, 0xda, 0x33, 0xfb, 0x25, 0xb3, 0xaa,
  0x18, 0x7f, 0xf0, 0x39, 0xc8, 0xea, 0x02, 0x04, 0xdb, 0x09, 0xde, 0x0b,
  0xf3, 0xa5, 0xda, 0x08, 0xba, 0xc8, 0x4f, 0x5c, 0x31, 0xb2, 0x67, 0xf7,
  0x1d, 0x0e, 0x66, 0x07, 0x81, 0xb2, 0x5e, 0xe3, 0xf4, 0xe6, 0x0d, 0x00,
  0xb2, 0xd9, 0x47, 0x43, 0xdc, 0x06, 0x29, 0xb0, 0xbd, 0x3a, 0x38, 0xcf,
  0xc1, 0x23, 0xf5, 0xcc, 0xc4, 0xe0, 0xdb, 0x04, 0xfb, 0x37, 0xfa, 0x25,
  0x09, 0xed, 0xe5, 0xdf, 0xf4, 0x81, 0xdd, 0x63, 0xec, 0x2b, 0x39, 0x81,
  0x37, 0x07, 0x3c, 0xe0, 0xe9, 0xcd, 0x37, 0xe5, 0x39, 0xd9, 0x1e, 0x54,
  0x20, 0x11, 0xc8, 0xde, 0xe4, 0x7f, 0xe5, 0x1a, 0x11, 0xc0, 0x39, 0xb0,
  0x13, 0x00, 0xff, 0x57, 0x53, 0x1a, 0x15, 0x34, 0x63, 0x0d, 0x9f, 0xcd,
  0x55, 0xc1, 0x22, 0x49, 0x81, 0xf9, 0xd3, 0xe8, 0x81, 0xc3, 0x1e, 0xf8,
  0xbe, 0x1f, 0xdc, 0x31, 0xf5, 0x33, 0x19, 0x7f, 0x3f, 0x3f, 0x22, 0x03,
  0x27, 0x41, 0xf3, 0x45, 0x82, 0x8c, 0xe8, 0x17, 0x81, 0x53, 0x82, 0xda,
  0xd6, 0x5c, 0x2f, 0x59, 0x96, 0x5c, 0xe4, 0x30, 0xe6, 0x29, 0x46, 0xb3,
  0xcf, 0xe0, 0xd6, 0x8b, 0xb0, 0x07, 0x0f, 0xfa, 0x37, 0xdb, 0xe8, 0xab,
  0xd8, 0x2f, 0x81, 0xee, 0x18, 0x6a, 0xe3, 0x4e, 0x19, 0xf8, 0x41, 0xfc,
  0x17, 0xe4, 0xf7, 0xb0, 0xfe, 0x06, 0xd6, 0x59, 0xef, 0x2a, 0xe7, 0x0d,
  0xcc, 0x72, 0xdf, 0x15, 0x66, 0x55, 0xb8, 0x7f, 0x13, 0xda, 0x09, 0xd5,
  0xe4, 0x30, 0x00, 0x24, 0xcc, 0x05, 0xa2, 0xbd, 0x1b, 0x85, 0x3d, 0x9e,
  0xaa, 0xec, 0x58, 0x1e, 0xc4, 0x7f, 0x00, 0xfb, 0x81, 0x05, 0xff, 0xf6,
  0x4e, 0x1f, 0x2b, 0x2b, 0x4a, 0x81, 0x16, 0xcf, 0xfd, 0xc9, 0xdf, 0xfe,
  0x19, 0x32, 0xd1, 0x23, 0x70, 0x78, 0x6e, 0xd9, 0x3f, 0x43, 0x23, 0x7d,
  0xdd, 0x16, 0xd6, 0x23, 0x37, 0x56, 0xd2, 0xd0, 0x18, 0x11, 0x53, 0xf9,
  0x2f, 0x37, 0x7f, 0xf1, 0x81, 0xf4, 0x2a, 0x0c, 0x17, 0x50, 0x81, 0xf9,
  0x37, 0xc5, 0x9f, 0x7f, 0x7f, 0x2c, 0xcb, 0x0e, 0xfa, 0x27, 0x1a, 0xc1,
  0x3b, 0xc4, 0xae, 0x30, 0x51, 0x0a, 0x63, 0x1e, 0x07, 0xe6, 0xed, 0x79,
  0x55, 0x18, 0xc5, 0xdc, 0xae, 0x19, 0x7f, 0x28, 0x67, 0x4d, 0xd8, 0x01,
  0x1b, 0x20, 0xd9, 0xdf, 0xe1, 0xcc, 0x23, 0x28, 0x8c, 0xaa, 0xcf, 0xf1,
  0x7f, 0x0b, 0x47, 0xc3, 0xb4, 0x57, 0xd5, 0x07, 0x0a, 0xbf, 0x21, 0xd4,
  0x66, 0x44, 0xee, 0x85, 0x11, 0xfb, 0x60, 0x64, 0x0e, 0xed, 0x41, 0xe7,
  0x17, 0x2c, 0xd0, 0x94, 0x00, 0x5c, 0x62, 0x0c, 0x2f, 0x0b, 0xf8, 0x1e,
  0x1d, 0x56, 0x19, 0x08, 0x33, 0x81, 0x20, 0xe5, 0xa1, 0x49, 0xb4, 0xf0,
  0xa6, 0x55, 0xcd, 0xd8, 0x12, 0x0e, 0xe0, 0x5f, 0x66, 0xe1, 0x5c, 0x20,
  0x69, 0x49, 0x73, 0x7f, 0x21, 0x5d, 0xcd, 0x03, 0x5c, 0x20, 0x7f, 0xea,
  0x2c, 0xef, 0x3e, 0xde, 0x3a, 0xb1, 0x27, 0x60, 0xe1, 0x0a, 0x65, 0x7f,
  0x7f, 0x06, 0x4b, 0xf6, 0x3b, 0xd1, 0xb6, 0x81, 0x47, 0x6c, 0xb4, 0x1d,
  0xf6, 0x3f, 0x2f, 0xf8, 0xe9, 0x36, 0x09, 0xee, 0x28, 0xd7, 0xd0, 0x51,
  0xba, 0x48, 0x34, 0xf9, 0xd2, 0x0e, 0xec, 0x1b, 0x56, 0xad, 0x44, 0x25,
  0xec, 0x44, 0xdd, 0xee, 0x51, 0x33, 0x23, 0x1b, 0xf8, 0x98, 0x81, 0x2b,
  0x65, 0x12, 0x75, 0xde, 0x9f, 0xc7, 0xfd, 0xee, 0x50, 0xde, 0x2c, 0xfd,
  0xeb, 0x7f, 0xed, 0x24, 0x7f, 0xf8, 0x43, 0x3c, 0xf1, 0xb3, 0xb4, 0x0b,
  0x81, 0x91, 0x19, 0xf4, 0xd7, 0xd3, 0x07, 0x44, 0x07, 0xd5, 0x18, 0x30,
  0x7f, 0x0a, 0x2f, 0x37, 0xcb, 0xc4, 0x55, 0xb8, 0xe1, 0xfd, 0xd9, 0x0b,
  0xe6, 0x8c, 0x8b, 0xee, 0xc3, 0x14, 0xba, 0x81, 0xec, 0x29, 0xfb, 0xe3,
  0x47, 0x36, 0xf2, 0x38, 0xf9, 0x4f, 0x12, 0x5e, 0xd0, 0xee, 0xb5, 0xdc,
  0x51, 0x60, 0x61, 0x81, 0xf8, 0x28, 0x14, 0xbe, 0xf8, 0xfc, 0xce, 0x26,
  0xa8, 0xcb, 0xfa, 0x13, 0xf1, 0xa8, 0x21, 0x14, 0xc9, 0x1a, 0x0a, 0x04,
  0x1b, 0x14, 0x7f, 0x0e, 0x0e, 0x38, 0xd1, 0x41, 0xdf, 0x87, 0x49, 0x8a,
  0xab, 0x1a, 0x34, 0x0b, 0xc2, 0x96, 0x72, 0x93, 0x8d, 0x1b, 0x50, 0x02,
  0x08, 0x8e, 0x12, 0x87, 0x67, 0x1a, 0x98, 0x87, 0x81, 0x92, 0xeb, 0x8e,
  0xdf, 0x17, 0x39, 0x86, 0xf7, 0x13, 0xb5, 0x0f, 0xe3, 0x17, 0xf1, 0x82,
  0x47, 0x86, 0xdb, 0x83, 0x15, 0x1a, 0x04, 0x0a, 0x58, 0x80, 0x08, 0x17,
  0x89, 0x0a, 0x39, 0x17, 0xec, 0x86, 0xb4, 0x17, 0x69, 0x0a, 0x8b, 0x12,
  0x1b, 0x12, 0x08, 0x17, 0x91, 0x06, 0x27, 0x96, 0x71, 0x9a, 0xb5, 0x16,
  0x88, 0x0e, 0xbf, 0x16, 0x0d, 0x9b, 0x7d, 0x17, 0xb8, 0x0f, 0x4f, 0x17,
  0x75, 0x9a, 0xcd, 0x16, 0xd0, 0x0a, 0x04, 0x1a, 0xb0, 0x13, 0x83, 0x92,
  0x54, 0x17, 0xc4, 0x0e, 0xd8, 0x13, 0xdb, 0x92, 0x14, 0x1b, 0x6a, 0x12,
  0x08, 0x16, 0xbb, 0x92, 0x44, 0x17, 0x72, 0x12, 0xbf, 0x13, 0x7b, 0x0b,
  0x28, 0x1b, 0x16, 0x0e, 0x2f, 0x16, 0x9e, 0x0e, 0x53, 0x1e, 0x6d, 0x0b,
  0x7f, 0x13, 0xfb, 0x0a, 0x62, 0x1b, 0xce, 0x80, 0xb2, 0x00, 0x92, 0x8f,
  0x81, 0x16, 0x19, 0x17, 0x8b, 0x12, 0x39, 0x92, 0x49, 0x17, 0x99, 0x17,
  0x06, 0x0e, 0x71, 0x92, 0xa5, 0x16, 0x41, 0x17, 0xa3, 0x87, 0xb0, 0x16,
  0xcb, 0x81, 0xc5, 0x0e, 0x3a, 0x00, 0xe8, 0x16, 0xb9, 0x8e, 0x13, 0x07,
  0xba, 0x02, 0xb4, 0x16, 0x19, 0x8f, 0x09, 0x0a, 0x83, 0x96, 0x69, 0x12,
  0x40, 0x0f, 0xb9, 0x0a, 0xb1, 0x9a, 0xc9, 0x12, 0x00, 0x16, 0x2a, 0x93,
  0xa3, 0x9a, 0x01, 0x13, 0x20, 0x12, 0x32, 0x9a, 0x23, 0x87, 0x80, 0x96,
  0x50, 0x8e, 0x6a, 0x00, 0x29, 0x8e, 0x12, 0x9b, 0x50, 0x97, 0xd9, 0x92,
  0x45, 0x83, 0xf4, 0x96, 0xa0, 0x0a, 0x11, 0x92, 0xe4, 0x0b, 0x73, 0x97,
  0x6c, 0x96, 0x6f, 0x96, 0x91, 0x01, 0xc3, 0x96, 0x5f, 0x8e, 0x4f, 0x9a,
  0x32, 0x0f, 0x2f, 0x96, 0x18, 0x92, 0xbb, 0x96, 0x36, 0x13, 0xf0, 0x96,
  0xd6, 0x96, 0x87, 0x0e, 0xe7, 0x00, 0x43, 0x8a, 0xe3, 0x9b, 0x15, 0x92,
  0xf6, 0x13, 0xbf, 0x12, 0x22, 0x97, 0x07, 0x0f, 0x90, 0x1a, 0x9c, 0x0e,
  0x5f, 0x16, 0x9f, 0x06, 0xe0, 0x1b, 0xd7, 0x17, 0xb7, 0x16, 0x28, 0x0e,
  0x04, 0x1b, 0x0e, 0x13, 0x3f, 0x16, 0xf0, 0x0a, 0x3a, 0x16, 0x0d, 0x17,
  0x71, 0x93, 0xdf, 0x8b, 0xfc, 0x92, 0x6d, 0x1a, 0x5f, 0x0f, 0x50, 0x93,
  0x6a, 0x96, 0x69, 0x1a, 0xf9, 0x93, 0x04, 0x01, 0xd8, 0x12, 0xb8, 0x07,
  0x16, 0x92, 0xda, 0x86, 0xc4, 0x17, 0xf2, 0x8f, 0xec, 0x8e, 0x1e, 0x96,
  0x21, 0x8f, 0x78, 0x06, 0x36, 0x92, 0x9a, 0x86, 0xaf, 0x86, 0x07, 0x8a,
  0x4e, 0x92, 0xd2, 0x93, 0x17, 0x8b, 0xe2, 0x92, 0x64, 0x0f, 0x48, 0x9a,
  0x52, 0x06, 0x54, 0x8f, 0x95, 0x17, 0x69, 0x97, 0x95, 0x93, 0x11, 0x80,
  0xff, 0x12, 0xa0, 0x8b, 0x85, 0x9a, 0x49, 0x87, 0x30, 0x16, 0x60, 0x8f,
  0x3d, 0x93, 0xde, 0x0e, 0x97, 0x13, 0xf0, 0x0e, 0xd0, 0x80, 0x5a, 0x8e,
  0xaa, 0x93, 0xb6, 0x0e, 0x34, 0x8b, 0xb1, 0x00, 0x6a, 0x9a, 0x8b, 0x12,
  0x54, 0x8b, 0x74, 0x8b, 0x21, 0x96, 0x76, 0x0f, 0x02, 0x92, 0xac, 0x92,
  0xd5, 0x13, 0x2e, 0x16, 0x98, 0x0a, 0xb2, 0x0a, 0x3a, 0x16, 0x53, 0x0b,
  0x90, 0x87, 0xce, 0x16, 0x16, 0x16, 0xf3, 0x92, 0x6e, 0x96, 0x5c, 0x97,
  0xfa, 0x17, 0x75, 0x96, 0x21, 0x9b, 0x20, 0x9b, 0x1b, 0x1a, 0x05, 0x9a,
  0x0a, 0x96, 0x9e, 0x9a, 0xb6, 0x17, 0x1d, 0x97, 0x33, 0x9a, 0x7d, 0x13,
  0xab, 0x96, 0x9e, 0x8f, 0xc7, 0x9b, 0x1d, 0x13, 0xf9, 0x9a, 0xa4, 0x96,
  0xff, 0x97, 0xdd, 0x12, 0xb3, 0x96, 0x2e, 0x8f, 0x52, 0x1a, 0x53, 0x07,
  0x9c, 0x96, 0xdc, 0x16, 0xd6, 0x1a, 0xd3, 0x07, 0x0a, 0x9a, 0x38, 0x17,
  0x8e, 0x1a, 0x4a, 0x0a, 0x84, 0x97, 0x34, 0x16, 0x22, 0x9a, 0x69, 0x8e,
  0xcf, 0x17, 0xab, 0x13, 0x00, 0x9e, 0x14, 0x13, 0x82, 0x1a, 0x07, 0x96,
  0x0c, 0x9a, 0x46, 0x17, 0x6b, 0x17, 0x47, 0x9a, 0x8a, 0x93, 0xaa, 0x0e,
  0x9a, 0x96, 0x43, 0x0f, 0xae, 0x06, 0x8a, 0x0f, 0x1b, 0x9a, 0x7a, 0x12,
  0x2c, 0x0f, 0x94, 0x0b, 0x16, 0x97, 0x73, 0x0f, 0xa7, 0x46, 0x4f, 0x42,
  0x24, 0x46, 0x20, 0x42, 0xf3, 0x47, 0xb5, 0x3e, 0x67, 0x46, 0x40, 0x42,
  0x63, 0x43, 0xc7, 0x42, 0x37, 0x43, 0xd1, 0x47, 0x7e, 0x4b, 0x34, 0x47,
  0xd4, 0x47, 0x6f, 0x47, 0xf5, 0x47, 0xb7, 0x42, 0x7e, 0x46, 0x58, 0x43,
  0x37, 0x42, 0x96, 0x42, 0x42, 0x4b, 0x3a, 0x42, 0x48, 0x36, 0x48, 0x47,
  0x34, 0x42, 0xea, 0x46, 0x2a, 0x43, 0x7a, 0x47, 0x7f, 0x47, 0xbf, 0x43,
  0xe6, 0x4a, 0x84, 0x43, 0x11, 0x42, 0x16, 0x42, 0x6f, 0x42, 0x03, 0x46,
  0xb4, 0x46, 0xa3, 0x46, 0x78, 0x3f, 0xee, 0x47, 0xd3, 0x42, 0x35, 0x46,
  0x09, 0x42, 0x89, 0x43, 0x82, 0x4b, 0x28, 0x43, 0x27, 0x46, 0x11, 0x42,
  0x0f, 0x42, 0xe0, 0x47, 0x81, 0x47, 0x30, 0x47, 0x55, 0x42, 0x0a, 0x42,
  0xd6, 0x46, 0x54, 0x43, 0x6c, 0x43, 0xc8, 0x47, 0x5f, 0x42, 0x3f, 0x43,
  0x58, 0x47, 0x29, 0x47, 0x89, 0x47, 0x21, 0x3e, 0x42, 0x46, 0x46, 0x47,
  0x3f, 0x42, 0x6e, 0x43, 0x00, 0x47, 0x76, 0x42, 0x32, 0x3e, 0xb8, 0x47,
  0x14, 0x47, 0x27, 0x42, 0x56, 0x4a, 0x0d, 0x46, 0x14, 0x46, 0x6d, 0x47,
  0xfd, 0x4a, 0x97, 0x42, 0x2f, 0x46, 0x6a, 0x42, 0x5b, 0x4b, 0xd5, 0x42,
  0x32, 0x46, 0x08, 0x42, 0xcc, 0x4b, 0x14, 0x42, 0xdd, 0x4b, 0x1d, 0x42,
  0xf0, 0x42, 0xc4, 0x47, 0x15, 0x46, 0xfb, 0x42, 0xc2, 0xeb, 0x38, 0x1b,
  0x8d, 0x03, 0x3c, 0xef, 0x10, 0xb6, 0xfd, 0xe1, 0xc2, 0x15, 0x7f, 0xd6,
  0x30, 0x7f, 0x77, 0x7f, 0x3d, 0x8a, 0x1f, 0x9e, 0xda, 0xeb, 0x3f, 0x2e,
  0x81, 0xc1, 0x44, 0xe5, 0x15, 0xf2, 0x10, 0x00, 0x71, 0x19, 0x0e, 0xfc,
  0x30, 0x4f, 0xf5, 0xee, 0x2e, 0x02, 0xfe, 0x19, 0xe9, 0x10, 0x5d, 0xd0,
  0x81, 0x81, 0x7f, 0xc9, 0xd6, 0x0f, 0x2d, 0x7f, 0x4a, 0x14, 0x14, 0xe7,
  0x10, 0x36, 0xe1, 0xfb, 0x2e, 0xf9, 0xf9, 0x08, 0xfd, 0x17, 0xf3, 0xc5,
  0x05, 0x0e, 0xe9, 0xc4, 0xf3, 0x06, 0x23, 0xfa, 0xfd, 0x09, 0xd7, 0x3f,
  0x7f, 0x7f, 0xb7, 0xca, 0xbf, 0x33, 0x7f, 0x12, 0xef, 0x22, 0xf2, 0x2f,
  0xdd, 0x0b, 0x01, 0x7f, 0xe5, 0xfe, 0x16, 0x2d, 0xeb, 0x13, 0xf9, 0xea,
  0x8c, 0x15, 0x2b, 0x7f, 0x3b, 0x0a, 0xef, 0xbb, 0xa1, 0x17, 0x9a, 0x59,
  0x82, 0x7f, 0x06, 0x68, 0x81, 0x0f, 0x7f, 0x51, 0xef, 0x0b, 0xf4, 0xc5,
  0xa4, 0x15, 0x34, 0x5a, 0x21, 0x0c, 0xfd, 0xb3, 0xff, 0x02, 0x35, 0xfd,
  0xf8, 0x0f, 0x4c, 0x20, 0x0e, 0xe4, 0x34, 0x04, 0x0b, 0x49, 0x11, 0xf1,
  0x7f, 0x81, 0xf9, 0x7f, 0x06, 0xca, 0x7f, 0xe3, 0x02, 0xfb, 0x2a, 0xf5,
  0xf0, 0x16, 0x4f, 0x14, 0x07, 0xeb, 0x40, 0xf6, 0xf6, 0x26, 0xf9, 0x33,
  0x2a, 0xeb, 0x6b, 0xf0, 0xf4, 0xfd, 0x5b, 0xd7, 0x02, 0x7f, 0x45, 0x7f,
  0x7f, 0xb1, 0x7f, 0x9a, 0xf6, 0xec, 0x7f, 0xe9, 0x05, 0x15, 0xf9, 0x32,
  0x1e, 0xef, 0x72, 0xfc, 0xf9, 0x0e, 0x37, 0xef, 0x13, 0xf4, 0xd5, 0x17,
  0x2f, 0x0f, 0x5f, 0x06, 0x0e, 0xef, 0xfe, 0x03, 0x3b, 0xf7, 0x1f, 0x58,
  0x81, 0x81, 0x7f, 0x7f, 0x15, 0x03, 0x35, 0x0f, 0x0e, 0xf9, 0x00, 0x1c,
  0x28, 0x14, 0x3c, 0x07, 0xfb, 0xfa, 0xed, 0xf3, 0x17, 0x0a, 0x17, 0xfb,
  0xf8, 0x05, 0xdf, 0xe6, 0x00, 0xff, 0xe2, 0xff, 0x7f, 0x1f, 0x7f, 0xd4,
  0x8b, 0x7f, 0xda, 0x7f, 0xf7, 0x23, 0x8e, 0xde, 0x0b, 0x0d, 0x1c, 0x01,
  0xf1, 0xfe, 0x09, 0xed, 0xff, 0x02, 0xe1, 0x0e, 0x13, 0x0f, 0x1d, 0xd0,
  0x81, 0xf8, 0x1e, 0xe3, 0xb4, 0x05, 0x11, 0xd2, 0x9b, 0xfb, 0xd7, 0xc1,
  0xab, 0x7f, 0x7f, 0xa5, 0x8a, 0xe8, 0xc3, 0xe3, 0x54, 0x0b, 0x04, 0x41,
  0xd3, 0xe8, 0x2b, 0x7f, 0xd2, 0x06, 0x0d, 0xf4, 0x02, 0xb9, 0xc9, 0x58,
  0xf6, 0x89, 0xb6, 0x81, 0xf2, 0xd5, 0xd2, 0xcb, 0xea, 0x89, 0x7f, 0x36,
  0x7f, 0x7f, 0xf5, 0x15, 0x9f, 0xc6, 0x05, 0x9e, 0xfb, 0xd2, 0xc9, 0x58,
  0xfd, 0xa9, 0x9b, 0xb7, 0xec, 0xb9, 0xb3, 0xd8, 0x04, 0xfc, 0x0f, 0xd1,
  0xf6, 0x11, 0x41, 0xcd, 0xea, 0x1f, 0x25, 0xd6, 0xe7, 0x81, 0xe0, 0xbb,
  0x7f, 0x11, 0x81, 0x81, 0xf4, 0x95, 0xda, 0x3b, 0x02, 0x1f, 0xfe, 0xea,
  0xec, 0xe3, 0x09, 0xd6, 0xe2, 0xd9, 0x16, 0xc7, 0xfd, 0x25, 0x96, 0xe4,
  0x96, 0x7f, 0x88, 0xae, 0x08, 0x06, 0xa6, 0x03, 0x46, 0xd1, 0xa7, 0x04,
  0x7f, 0xfa, 0x7f, 0x7f, 0x13, 0xdb, 0xbd, 0x0f, 0xed, 0xdd, 0x96, 0xdd,
  0x9a, 0xc8, 0x90, 0x9c, 0xfc, 0xf1, 0xb1, 0x14, 0x09, 0x31, 0x08, 0x48,
  0x7f, 0x7f, 0x12, 0xd6, 0x20, 0x1c, 0xfc, 0xfa, 0x78, 0x1a, 0x25, 0x7f,
  0x79, 0x85, 0x7f, 0x99, 0x63, 0x0e, 0x07, 0xf7, 0x08, 0x11, 0x0e, 0x33,
  0x49, 0x72, 0x0e, 0xe2, 0x1d, 0x11, 0x02, 0xf6, 0xa2, 0x17, 0x09, 0xe4,
  0x81, 0x65, 0x59, 0xdd, 0xef, 0xf7, 0x42, 0xf4, 0xaf, 0x34, 0x82, 0xe7,
  0x4f, 0x7f, 0x96, 0x7f, 0x37, 0x47, 0xe0, 0xc8, 0x1e, 0x0a, 0xf2, 0xe3,
  0x44, 0x0c, 0x7f, 0xc1, 0xd9, 0xec, 0x44, 0xf0, 0x20, 0xf8, 0xf5, 0xd0,
  0x44, 0xe3, 0x1e, 0xde, 0x32, 0xd7, 0x01, 0xd6, 0xd1, 0xf7, 0xec, 0x0b,
  0xbe, 0x7f, 0x81, 0x7f, 0xdb, 0xba, 0x26, 0xb4, 0x50, 0xf3, 0xf3, 0xdd,
  0x7f, 0xdf, 0x22, 0xcb, 0x54, 0xe5, 0x03, 0xdb, 0xed, 0xd0, 0x07, 0xf5,
  0x02, 0xe8, 0x76, 0x81, 0x03, 0xfc, 0x03, 0xe0, 0xf9, 0x81, 0x9b, 0xf9,
  0x9f, 0x60, 0x75, 0xc1, 0x7f, 0x0a, 0x6d, 0xd9, 0xee, 0xee, 0xca, 0x01,
  0xf3, 0xdf, 0x81, 0xbc, 0xfd, 0x0c, 0x06, 0xf9, 0xcf, 0xea, 0xc6, 0x03,
  0xae, 0x17, 0xe7, 0xc7, 0xb3, 0xf2, 0x7f, 0x1d, 0xa3, 0x01, 0xf8, 0xac,
  0x7f, 0x7f, 0xe7, 0x7f, 0x91, 0xc1, 0xf1, 0xd9, 0xcd, 0xdd, 0x7a, 0xd8,
  0x94, 0xfc, 0xb7, 0xad, 0xc4, 0xec, 0xe8, 0x16, 0xe3, 0x25, 0xcf, 0x06,
  0xf5, 0xf0, 0x81, 0x1b, 0x10, 0x12, 0xf0, 0x05, 0xe9, 0x17, 0xe5, 0x7f,
  0x94, 0x81, 0x0d, 0x8f, 0x7f, 0x28, 0xf5, 0x1b, 0xed, 0x1f, 0xe4, 0x0f,
  0xfb, 0xf6, 0x8b, 0x07, 0x19, 0x08, 0xe4, 0x04, 0x29, 0x07, 0xf8, 0xef,
  0x55, 0x7f, 0x15, 0xc3, 0xd7, 0xe5, 0x07, 0xdd, 0x81, 0xe6, 0xe6, 0xdb,
  0x19, 0x7c, 0x7f, 0x55, 0x03, 0xd1, 0x28, 0xdf, 0x29, 0xea, 0xfd, 0x12,
  0x47, 0xa9, 0x07, 0x7f, 0xb3, 0xcf, 0x05, 0xe8, 0xe8, 0xcb, 0x7f, 0xea,
  0x9d, 0x81, 0xb2, 0xdf, 0x86, 0xfb, 0xde, 0xd2, 0xa9, 0x89, 0xfb, 0x81,
  0x5d, 0x9e, 0x70, 0xb3, 0x95, 0xb1, 0x11, 0xef, 0xd9, 0xe7, 0xd1, 0xe8,
  0x98, 0xd5, 0xda, 0x00, 0x81, 0x03, 0x75, 0xdd, 0x8f, 0x00, 0x97, 0xec,
  0xaf, 0xff, 0xdc, 0xc3, 0xf8, 0xf5, 0xbb, 0xe2, 0x95, 0x09, 0xdc, 0xb9,
  0x1e, 0x7f, 0x2f, 0x7f, 0xa2, 0xeb, 0xb2, 0xa6, 0x81, 0x02, 0x81, 0xee,
  0xa9, 0x06, 0xbd, 0xa4, 0xf2, 0x00, 0xf2, 0xf8, 0x00, 0xf2, 0xf2, 0xff,
  0x40, 0x17, 0x94, 0x30, 0x02, 0xf9, 0x1c, 0xe8, 0x7f, 0x51, 0x9f, 0x19,
  0x7c, 0x46, 0x81, 0x7f, 0x1b, 0x81, 0xf4, 0x18, 0x13, 0xe4, 0xfb, 0xf0,
  0x11, 0x1c, 0xb6, 0x3e, 0x00, 0xfd, 0x2b, 0x13, 0xce, 0xff, 0x0a, 0xba,
  0x81, 0x7f, 0x68, 0x84, 0xc2, 0x0b, 0xdb, 0xcb, 0xa3, 0x09, 0x48, 0xd6,
  0xce, 0x3c, 0x39, 0xdf, 0xef, 0x0f, 0x5b, 0xed, 0xba, 0xd4, 0x05, 0x2d,
  0x83, 0xb8, 0x7f, 0x7f, 0xc9, 0x05, 0xe2, 0xf6, 0x05, 0x1f, 0xea, 0xfe,
  0x7f, 0xfb, 0xd8, 0x0f, 0xf8, 0xf4, 0xd7, 0x0e, 0x10, 0x7f, 0xde, 0xc6,
  0x9b, 0xef, 0x81, 0xfb, 0x13, 0xad, 0xb3, 0x7f, 0x09, 0x2d, 0xf8, 0xff,
  0xcd, 0xf4, 0xdf, 0x0a, 0x02, 0xfb, 0xe1, 0x0f, 0xb7, 0x1e, 0x9e, 0x9b,
  0x42, 0x16, 0xc1, 0x96, 0xad, 0x93, 0xef, 0x17, 0x2a, 0x9f, 0x84, 0x1a,
  0x26, 0x9e, 0x06, 0x1e, 0x1e, 0x9b, 0xb6, 0x12, 0x48, 0x92, 0x0d, 0x1f,
  0x50, 0x16, 0x90, 0x16, 0x42, 0x4a, 0x6c, 0x4f, 0xa0, 0x4f, 0xab, 0x4e,
  0x04, 0x4a, 0x8b, 0x4a, 0xc6, 0x4e, 0xf0, 0x4e, 0x21, 0x4a, 0x15, 0x4a,
  0x3f, 0x4a, 0xfc, 0x4e, 0x7e, 0x4f, 0x69, 0x4a, 0xce, 0x4e, 0x4b, 0x4f,
  0x01, 0x10, 0x0b, 0x09, 0x09, 0x22, 0xc6, 0xd5, 0xe7, 0xe5, 0x13, 0xf1,
  0x18, 0xe1, 0xdd, 0xa1, 0xdb, 0x56, 0x2f, 0x08, 0xe9, 0xf6, 0x33, 0xf3,
  0x3c, 0xd0, 0x56, 0x10, 0xe8, 0xf4, 0xd4, 0x40, 0xeb, 0xbd, 0xf0, 0xf0,
  0xf9, 0xdf, 0x3d, 0xbf, 0x45, 0x3e, 0xcc, 0x00, 0xf1, 0xdb, 0x7f, 0xe7,
  0xec, 0x15, 0xca, 0xe2, 0xec, 0xfe, 0xe4, 0x00, 0xcf, 0x76, 0xd1, 0x9b,
  0xd5, 0x17, 0x1b, 0xf8, 0xe8, 0xb3, 0x00, 0xe0, 0xcc, 0xe7, 0xc9, 0xc1,
  0xd0, 0x20, 0xfe, 0xdb, 0x0d, 0x73, 0xac, 0xe2, 0x1c, 0xcf, 0x13, 0xd8,
  0x26, 0x04, 0xee, 0x01, 0xf1, 0x95, 0xca, 0x49, 0xa2, 0xe3, 0x62, 0x1b,
  0x2d, 0xbe, 0x30, 0x2b, 0x01, 0xd9, 0x00, 0xe9, 0x1e, 0xe2, 0x0d, 0x1b,
  0xfa, 0xf3, 0xfd, 0x3d, 0x18, 0x3a, 0x01, 0x25, 0xee, 0xe3, 0x28, 0xf8,
  0x0a, 0x15, 0xe7, 0x40, 0xff, 0xca, 0x11, 0xe7, 0xc2, 0xd8, 0x18, 0x1b,
  0xe1, 0xd8, 0xfb, 0x09, 0x19, 0xec, 0x81, 0x04, 0x3f, 0x1b, 0xd4, 0x18,
  0xfb, 0xe3, 0xeb, 0xb8, 0xf1, 0x0c, 0xc4, 0xea, 0x10, 0x3c, 0x15, 0xd7,
  0xfb, 0x25, 0xff, 0x13, 0x57, 0x2b, 0xaf, 0xea, 0x01, 0xd2, 0x54, 0xc5,
  0xea, 0xe2, 0xfb, 0x23, 0xda, 0x29, 0x17, 0xd8, 0x25, 0xe8, 0xba, 0x0e,
  0xf6, 0x13, 0xfa, 0xee, 0x92, 0xe8, 0xac, 0xe1, 0xb4, 0x01, 0xe3, 0x00,
  0xfa, 0x48, 0x7f, 0x40, 0x00, 0x06, 0x0e, 0x31, 0xf9, 0xf9, 0xe3, 0x0d,
  0xd0, 0x57, 0x1c, 0x08, 0xdf, 0xd5, 0xd4, 0x1f, 0x10, 0xce, 0x37, 0xe8,
  0x03, 0xcd, 0xe3, 0x51, 0x50, 0x31, 0xed, 0x53, 0x13, 0x4c, 0x32, 0xe9,
  0xe4, 0x19, 0xcb, 0x1d, 0xde, 0xf6, 0xf4, 0x3d, 0xec, 0x05, 0xaa, 0x35,
  0xe8, 0x7f, 0xc5, 0xf2, 0xf1, 0x24, 0x04, 0x4f, 0x8e, 0x24, 0x05, 0xd4,
  0x0e, 0x15, 0x1e, 0x17, 0x03, 0xfb, 0x02, 0xfb, 0xf4, 0x19, 0x10, 0x0e,
  0xfe, 0xe5, 0xfe, 0x27, 0xf2, 0xfd, 0x18, 0xe7, 0x05, 0xde, 0x16, 0xce,
  0x01, 0xc4, 0x22, 0xfe, 0x27, 0x4a, 0xe4, 0x08, 0xd6, 0x81, 0x10, 0x71,
  0x13, 0x12, 0x1e, 0xf7, 0x05, 0x25, 0xd4, 0x4a, 0xdf, 0x0a, 0xf7, 0xec,
  0x0a, 0xd5, 0x01, 0x25, 0x35, 0x3f, 0xdf, 0xfa, 0xde, 0xf2, 0xed, 0xe8,
  0xed, 0xcd, 0x07, 0xf4, 0xd0, 0x10, 0xe3, 0x09, 0x53, 0x09, 0x14, 0xde,
  0xfe, 0xf4, 0xeb, 0xc7, 0x2f, 0x0c, 0x09, 0x17, 0xfb, 0x03, 0xd7, 0x08,
  0x10, 0x0a, 0x1f, 0xd2, 0xd6, 0xfa, 0xf5, 0x09, 0xcd, 0x2b, 0x38, 0xd4,
  0xf7, 0xec, 0x18, 0xa3, 0xf6, 0xfd, 0xfe, 0xe0, 0x26, 0xde, 0xf9, 0x39,
  0x05, 0x35, 0xff, 0xea, 0x4c, 0xd6, 0x0f, 0x1c, 0xce, 0xf8, 0x43, 0xf2,
  0xf4, 0x1f, 0xbe, 0x25, 0x1d, 0x27, 0x91, 0xe8, 0x16, 0x37, 0x3c, 0x35,
  0x30, 0xe4, 0x60, 0xfe, 0xb6, 0xf5, 0x2d, 0xa3, 0xc1, 0x15, 0xf5, 0x2b,
  0x38, 0xe3, 0x13, 0xcc, 0x17, 0xe3, 0xbb, 0x09, 0xe4, 0x22, 0x30, 0x0a,
  0x48, 0x12, 0x9f, 0x81, 0x05, 0x4d, 0xcd, 0x14, 0xbb, 0x02, 0x2b, 0x15,
  0xdb, 0x25, 0x43, 0x17, 0xe9, 0x37, 0x0e, 0xd1, 0x65, 0x16, 0x28, 0xee,
  0xc7, 0x27, 0x3b, 0x1d, 0x2d, 0xbf, 0xef, 0x10, 0x4e, 0x07, 0xde, 0xe7,
  0x25, 0xd7, 0x31, 0xc0, 0x09, 0xce, 0x25, 0x25, 0x21, 0x0f, 0xcb, 0xf5,
  0x2d, 0x13, 0x36, 0x1b, 0x10, 0xfa, 0xea, 0xe6, 0xed, 0x42, 0xe5, 0x1d,
  0xe2, 0xd2, 0x08, 0xea, 0xf6, 0xd0, 0x0f, 0xfe, 0xd9, 0x23, 0xb6, 0x07,
  0x00, 0x19, 0xbd, 0x0e, 0xe4, 0x07, 0xf7, 0xed, 0xfa, 0x03, 0xf6, 0x3a,
  0xd8, 0x18, 0x36, 0xfe, 0xcc, 0xc6, 0xf3, 0x00, 0x21, 0x2c, 0x29, 0x31,
  0xe2, 0xca, 0x10, 0xff, 0x42, 0x1b, 0x21, 0xe0, 0x12, 0x0a, 0x39, 0x1d,
  0x24, 0x2d, 0x5c, 0xf9, 0x23, 0x05, 0xf5, 0xf6, 0xe6, 0xe8, 0x64, 0xff,
  0x4e, 0x25, 0xbf, 0xfc, 0xe0, 0x11, 0x64, 0xfb, 0x3d, 0xa7, 0xbf, 0xd3,
  0x5e, 0xd0, 0x76, 0xfc, 0xfb, 0xf1, 0x07, 0x11, 0xd7, 0x81, 0x0b, 0x0d,
  0x06, 0x03, 0xec, 0xdb, 0xd9, 0xd4, 0xd9, 0x09, 0x0f, 0x1e, 0x00, 0xab,
  0x01, 0x07, 0x02, 0x0e, 0x9a, 0x40, 0xe2, 0xa7, 0xcd, 0x16, 0x3a, 0xef,
  0x15, 0x20, 0xfe, 0x18, 0x18, 0x1e, 0xf1, 0x17, 0x0f, 0x2d, 0x1b, 0x39,
  0x04, 0xc2, 0xfa, 0xcf, 0x0f, 0x3b, 0x36, 0x4e, 0x08, 0x0f, 0x23, 0x07,
  0xe5, 0xaa, 0x12, 0xa8, 0x11, 0xed, 0x9f, 0xf0, 0x47, 0xe5, 0x20, 0x11,
  0xce, 0xf5, 0x4e, 0xd0, 0xdd, 0xec, 0xf4, 0xeb, 0x08, 0xd5, 0x5f, 0xf8,
  0xe9, 0x28, 0xc4, 0x38, 0xfe, 0xf1, 0x7f, 0x2f, 0x66, 0x1e, 0xb6, 0x3a,
  0x39, 0xe8, 0x69, 0xf2, 0x01, 0x22, 0x26, 0x1e, 0x20, 0xf1, 0x12, 0xcb,
  0x1c, 0x28, 0x34, 0xf6, 0xf4, 0xce, 0xe1, 0xd2, 0x22, 0x42, 0x2a, 0xbb,
  0xde, 0x01, 0xea, 0x29, 0xf0, 0x41, 0x31, 0x9c, 0x11, 0xf0, 0xcb, 0xea,
  0xb8, 0xf8, 0xf1, 0x46, 0xd8, 0xc7, 0xfd, 0x08, 0xf7, 0xd5, 0xf8, 0xdd,
  0xe1, 0xcc, 0x43, 0x3a, 0x29, 0xbd, 0xe5, 0xa3, 0x23, 0x42, 0x13, 0x57,
  0x44, 0xe3, 0xe3, 0xf1, 0x21, 0x27, 0xb5, 0x1e, 0xfb, 0x05, 0xa6, 0xd6,
  0xe6, 0xe0, 0x25, 0x06, 0xe8, 0xd8, 0x01, 0x33, 0xc6, 0x2b, 0xc0, 0xf8,
  0xd7, 0xcd, 0xb4, 0x00, 0xf6, 0xe3, 0xfa, 0x17, 0xd8, 0x46, 0x9a, 0x5d,
  0xe7, 0x0a, 0xfa, 0x11, 0x13, 0x08, 0x71, 0x69, 0x40, 0xcb, 0xd0, 0x38,
  0xe9, 0xfb, 0x48, 0xe6, 0x1b, 0xa4, 0x00, 0x39, 0xe6, 0x13, 0x2c, 0xdb,
  0x03, 0xef, 0xdb, 0x14, 0x27, 0xd6, 0x4e, 0x8e, 0x22, 0x0a, 0x60, 0xf2,
  0xf1, 0xaf, 0xf2, 0xfb, 0xd9, 0xd0, 0xc6, 0x20, 0x17, 0x29, 0xf5, 0xf1,
  0xfc, 0xd6, 0x01, 0x09, 0x34, 0x39, 0xc2, 0xea, 0xe4, 0x14, 0xdd, 0x21,
  0xe3, 0x39, 0x22, 0x1f, 0x5c, 0xea, 0x2b, 0x23, 0xf5, 0xe7, 0x16, 0xf7,
  0x12, 0x23, 0x02, 0x2d, 0xfa, 0x08, 0xdf, 0xef, 0xbd, 0x22, 0x08, 0x04,
  0x17, 0xe3, 0x0f, 0x37, 0x1e, 0x20, 0x02, 0x02, 0xc1, 0xe2, 0x0f, 0x1e,
  0x2b, 0xf5, 0x01, 0xf3, 0xe4, 0xfe, 0x2d, 0x36, 0xcb, 0x08, 0x37, 0x46,
  0x2f, 0x15, 0xdb, 0x19, 0x4d, 0xdc, 0xef, 0xc7, 0x3a, 0xf0, 0x07, 0xf0,
  0x1d, 0x48, 0xe2, 0x1e, 0xbf, 0xe1, 0x41, 0xf7, 0x11, 0x15, 0xc4, 0x0b,
  0x0d, 0x14, 0xbf, 0x02, 0xda, 0x3a, 0x1e, 0xe1, 0x0e, 0x0f, 0xe7, 0xca,
  0x1a, 0x0b, 0x16, 0x04, 0x01, 0x03, 0xf5, 0x15, 0xd0, 0xfa, 0x29, 0xd5,
  0xab, 0xed, 0x52, 0xff, 0x53, 0x4e, 0xf3, 0xe1, 0x45, 0xf0, 0x19, 0xf7,
  0x02, 0x1f, 0xd5, 0xe5, 0xd2, 0xef, 0x21, 0xed, 0xed, 0x46, 0x0b, 0xcf,
  0x14, 0xc6, 0xdf, 0x17, 0x04, 0x3e, 0x2a, 0x0c, 0xe3, 0x37, 0xac, 0x2e,
  0x01, 0x06, 0xa2, 0x22, 0x07, 0xa4, 0xd6, 0xd2, 0x11, 0x32, 0xea, 0xec,
  0x1a, 0xe7, 0xe4, 0xdc, 0x13, 0x32, 0x09, 0xc8, 0xfe, 0x47, 0xeb, 0x3d,
  0xca, 0xdb, 0x07, 0x37, 0xf6, 0x1a, 0x99, 0xf5, 0xfa, 0xd4, 0x1e, 0x41,
  0xf4, 0xdf, 0x5a, 0xf8, 0xdd, 0x33, 0x11, 0x19, 0x1c, 0xeb, 0xaa, 0x27,
  0x28, 0x15, 0x33, 0x03, 0xcb, 0xeb, 0x81, 0xfa, 0x1f, 0x22, 0xe9, 0x26,
  0xcb, 0x02, 0xc2, 0x8e, 0x38, 0xe6, 0x4b, 0x19, 0xe8, 0x3e, 0x07, 0xe4,
  0x22, 0x04, 0x0f, 0x12, 0xf9, 0x45, 0xfb, 0x09, 0x2e, 0xc5, 0xe2, 0x20,
  0x3b, 0xe8, 0x27, 0x00, 0x0c, 0x29, 0x28, 0xec, 0x1c, 0x06, 0x0b, 0x56,
  0x22, 0xda, 0xf0, 0x28, 0xeb, 0x09, 0x0e, 0xf3, 0xd9, 0xf6, 0x23, 0x31,
  0x10, 0x19, 0xe9, 0x0b, 0x14, 0x79, 0x9e, 0x05, 0xda, 0xae, 0x33, 0xfa,
  0xf5, 0x3c, 0xf1, 0x33, 0xc9, 0x24, 0x0e, 0xf1, 0x3c, 0x2a, 0xf2, 0xb0,
  0xea, 0xf2, 0x13, 0xe6, 0xed, 0x03, 0x39, 0xf0, 0x21, 0xf4, 0xfe, 0x0b,
  0x12, 0xf5, 0x57, 0xf8, 0x1e, 0xd7, 0xf9, 0x24, 0x06, 0xe7, 0xca, 0xd1,
  0xef, 0xbf, 0x14, 0xbe, 0x37, 0x53, 0x33, 0x37, 0xfc, 0x25, 0x12, 0xdf,
  0xd5, 0xe7, 0x11, 0x00, 0x27, 0xf8, 0x20, 0xd6, 0xbf, 0x31, 0xf5, 0x08,
  0xe8, 0xcd, 0xfc, 0x11, 0x08, 0xf6, 0x16, 0x07, 0x0f, 0xe5, 0x37, 0xd7,
  0x56, 0x30, 0xfb, 0x0a, 0x09, 0xf6, 0x1b, 0x00, 0x06, 0x32, 0x15, 0x30,
  0xe1, 0xf8, 0x0c, 0x18, 0xcb, 0x0b, 0xf9, 0xfe, 0x1f, 0xe7, 0x10, 0xf0,
  0x34, 0x2d, 0xe0, 0x19, 0xf1, 0x43, 0xb8, 0x21, 0xdb, 0x81, 0x1e, 0xdc,
  0x26, 0xf8, 0x2f, 0xff, 0xc3, 0xfb, 0xfb, 0x23, 0x09, 0xf9, 0x0d, 0xd7,
  0x31, 0xf5, 0xe5, 0x01, 0xba, 0xe1, 0xcf, 0x4f, 0xd3, 0x2a, 0x04, 0x07,
  0xf6, 0xe1, 0x56, 0x1c, 0xe6, 0xe7, 0xea, 0x02, 0xe6, 0xfd, 0xce, 0x09,
  0x74, 0x03, 0xe6, 0xf8, 0xd8, 0xf0, 0x00, 0x16, 0xed, 0x12, 0xad, 0x5a,
  0x58, 0xe1, 0x2b, 0xa3, 0xfc, 0xdb, 0x41, 0x1e, 0xfc, 0x1b, 0xde, 0x0f,
  0xf3, 0xd2, 0xe8, 0x40, 0x00, 0x6f, 0xc9, 0xfa, 0x03, 0x0f, 0x23, 0x10,
  0x03, 0xfd, 0xf4, 0xeb, 0xd1, 0xff, 0x0b, 0xf2, 0x2a, 0xf3, 0xee, 0xca,
  0x02, 0xe1, 0xf4, 0xfb, 0xbb, 0x24, 0x1c, 0x3e, 0xef, 0xfb, 0xf1, 0x0b,
  0xfe, 0xb1, 0xb4, 0xf6, 0xe7, 0xec, 0x47, 0x18, 0xfa, 0xc5, 0xe8, 0x06,
  0x18, 0x0a, 0x00, 0xc3, 0xff, 0x2a, 0x4a, 0x10, 0x12, 0x1b, 0x0b, 0xe0,
  0x2c, 0x4a, 0x07, 0x36, 0xf2, 0xcc, 0xdb, 0x0f, 0xad, 0xe7, 0xe0, 0xff,
  0x0d, 0x21, 0x3d, 0xff, 0xf0, 0xe8, 0xa3, 0xce, 0x0d, 0xdc, 0x81, 0xb8,
  0xd1, 0xef, 0x17, 0x20, 0x06, 0x43, 0x7f, 0x39, 0x24, 0xe0, 0xf9, 0xc4,
  0x1c, 0x23, 0xac, 0x45, 0x01, 0xec, 0x31, 0xff, 0x33, 0xd5, 0xf0, 0x22,
  0xd4, 0xd0, 0x3a, 0xf7, 0x0e, 0xea, 0x96, 0x16, 0x55, 0x04, 0x29, 0x1d,
  0x1e, 0x15, 0xd9, 0xea, 0x37, 0x45, 0x3b, 0x18, 0xe9, 0xeb, 0xfa, 0xfb,
  0xc7, 0x81, 0x24, 0x94, 0xfd, 0x81, 0xc5, 0x8d, 0xd9, 0x1b, 0x1d, 0x15,
  0x46, 0x0f, 0xe0, 0xfd, 0xf1, 0xe6, 0xdf, 0xe2, 0x26, 0x2e, 0xbd, 0x2b,
  0xdc, 0x26, 0x12, 0x08, 0xfc, 0x84, 0xce, 0x9b, 0xff, 0x05, 0xbb, 0x11,
  0xcf, 0xf1, 0x1d, 0xfc, 0x2d, 0xe6, 0xa1, 0x03, 0x2d, 0x47, 0x8a, 0xdf,
  0xd2, 0xd8, 0x26, 0xba, 0x29, 0xc2, 0x75, 0xe5, 0x2d, 0xf3, 0x1c, 0x1b,
  0xe7, 0x18, 0x88, 0x31, 0xdd, 0x0b, 0xf1, 0x2e, 0xf2, 0x1b, 0x0c, 0xd3,
  0xee, 0x29, 0xee, 0xf2, 0xfe, 0xf9, 0xfc, 0x05, 0x02, 0xbe, 0x2d, 0xda,
  0x04, 0xdc, 0x21, 0x0c, 0xc2, 0x75, 0x10, 0x8f, 0x49, 0xd5, 0x3d, 0x17,
  0x40, 0xb9, 0xde, 0x3e, 0x2b, 0xff, 0xce, 0xf9, 0x02, 0x01, 0xc1, 0x81,
  0xe1, 0xf8, 0x44, 0x45, 0xf8, 0xec, 0xfa, 0xac, 0x16, 0x3e, 0xeb, 0xe9,
  0x57, 0xfd, 0x05, 0x0e, 0xd9, 0xfb, 0xe3, 0xe1, 0xcf, 0x57, 0x17, 0xed,
  0xe9, 0x6a, 0x33, 0x19, 0xd8, 0x18, 0x1d, 0x07, 0xfd, 0xc3, 0x0c, 0x01,
  0x03, 0x30, 0xdf, 0xfa, 0xf5, 0xef, 0x0a, 0x31, 0x81, 0xee, 0xf9, 0xff,
  0x34, 0x5b, 0x06, 0xca, 0xe0, 0xf8, 0xfe, 0xd3, 0x42, 0x2c, 0x0f, 0x3d,
  0x3f, 0xde, 0x04, 0x29, 0xd9, 0x26, 0x6a, 0x3d, 0x1d, 0x49, 0x14, 0x3f,
  0x02, 0x1c, 0x34, 0x1e, 0xd2, 0x11, 0x30, 0x25, 0xea, 0xe9, 0x2d, 0xd0,
  0xa3, 0x96, 0x00, 0x00, 0x00, 0x00, 0xa3, 0x96, 0x25, 0x0f, 0x25, 0x0f,
  0xc9, 0x0e, 0xae, 0x0a, 0x1c, 0x07, 0xab, 0x83, 0x38, 0x12, 0xd4, 0x0e,
  0x20, 0x12, 0x3d, 0x0a, 0xb8, 0x81, 0x81, 0x12, 0xb7, 0x02, 0xa7, 0x8a,
  0xf8, 0x0b, 0x67, 0x0b, 0x0a, 0x03, 0x26, 0x80, 0x37, 0x0e, 0x76, 0x12,
  0xf0, 0x83, 0xff, 0x02, 0xd1, 0x0b, 0xee, 0x13, 0x86, 0x0f, 0x81, 0x87,
  0xa5, 0x8a, 0xe7, 0x82, 0x7d, 0x13, 0x53, 0x82, 0x77, 0x07, 0x06, 0x07,
  0xf6, 0x0f, 0x48, 0x8a, 0x0f, 0x12, 0x8e, 0x0a, 0x3e, 0x0e, 0xf9, 0x8b,
  0x40, 0x06, 0xdb, 0x8b, 0xee, 0x02, 0xe7, 0x07, 0x77, 0x0a, 0x2f, 0x06,
  0x12, 0x07, 0xc0, 0x80, 0x3e, 0x06, 0x9b, 0x0a, 0x97, 0x0e, 0xeb, 0x0e,
  0xa6, 0x0a, 0x74, 0x0b, 0xbe, 0x0e, 0x3b, 0x07, 0x1a, 0x8a, 0xf6, 0x06,
  0xc1, 0x07, 0x87, 0x0a, 0x5c, 0x06, 0xb9, 0x0a, 0x98, 0x0e, 0x19, 0x03,
  0x4d, 0x82, 0xeb, 0x0b, 0xd7, 0x0a, 0x52, 0x0e, 0x2d, 0x0e, 0x69, 0x0f,
  0xe6, 0x8b, 0x75, 0x0a, 0xce, 0x0e, 0x61, 0x83, 0x47, 0x0f, 0x40, 0x03,
  0xaa, 0x0a, 0xf7, 0x0b, 0x21, 0x0e, 0x28, 0x0a, 0xf0, 0x00, 0x56, 0x0a,
  0x47, 0x0a, 0x6d, 0x0a, 0x7b, 0x0e, 0x69, 0x0a, 0xe2, 0x0f, 0x5a, 0x06,
  0x7a, 0x07, 0x01, 0x0e, 0x9f, 0x02, 0x02, 0x86, 0x4b, 0x12, 0x0c, 0x81,
  0xcd, 0x06, 0x7d, 0x83, 0xaa, 0x12, 0x64, 0x0b, 0x5a, 0x01, 0xa6, 0x83,
  0xe1, 0x46, 0x45, 0x47, 0xf3, 0x46, 0x2c, 0x42, 0x46, 0x46, 0xf3, 0x46,
  0x6c, 0x46, 0x88, 0x46, 0x67, 0x42, 0x9d, 0x4b, 0x3a, 0x42, 0x3f, 0x47,
  0xd9, 0x46, 0x66, 0x47, 0x71, 0x47, 0x14, 0x42, 0x4b, 0x47, 0x44, 0x4b,
  0xfe, 0x46, 0xdd, 0x47, 0x35, 0x47, 0xba, 0x4a, 0x4e, 0x46, 0xe4, 0x47,
  0x65, 0x42, 0xcb, 0x47, 0x01, 0x4b, 0xa1, 0x47, 0xc2, 0x47, 0x1d, 0x47,
  0x5b, 0x46, 0x44, 0x47, 0x21, 0x46, 0x0e, 0x42, 0x53, 0x47, 0x29, 0x47,
  0x6d, 0x47, 0x5c, 0x47, 0x5d, 0x47, 0x23, 0x47, 0xb4, 0x47, 0x41, 0x42,
  0x68, 0x47, 0xa8, 0x42, 0x9d, 0x42, 0x72, 0x47, 0x8d, 0x46, 0x86, 0x46,
  0x56, 0x42, 0x9e, 0x47, 0xdb, 0x46, 0x74, 0x42, 0x2e, 0x42, 0x61, 0x42,
  0xa4, 0x47, 0xf4, 0x47, 0x63, 0x42, 0x7c, 0x47, 0x2e, 0x47, 0x5a, 0x42,
  0xa3, 0x42, 0xe1, 0x47, 0x2e, 0x42, 0x1d, 0x47, 0x1a, 0x47, 0x9d, 0x46,
  0x02, 0x47, 0x09, 0x42, 0x71, 0x46, 0x5c, 0x42, 0xa0, 0x46, 0x42, 0x42,
  0xf5, 0x46, 0x40, 0x46, 0x0e, 0x47, 0x1a, 0x47, 0xb0, 0x47, 0x2d, 0x47,
  0xb3, 0x47, 0x8a, 0x47, 0x47, 0x46, 0x57, 0x47, 0x19, 0x46, 0x9a, 0x47,
  0x1b, 0x42, 0x06, 0x42, 0x11, 0x42, 0x53, 0x42, 0x1e, 0x46, 0xd5, 0x47,
  0xf8, 0x46, 0xad, 0x42, 0xcd, 0x4b, 0xbb, 0x46, 0x06, 0x42, 0xf5, 0x46,
  0xc0, 0x12, 0x8f, 0xba, 0xb4, 0x39, 0x9e, 0x83, 0xc7, 0xee, 0x8e, 0x09,
  0xc0, 0xcb, 0xfc, 0xd6, 0x4f, 0x25, 0xff, 0x1e, 0xcf, 0x3a, 0xb1, 0x03,
  0xf7, 0xe0, 0xde, 0xfd, 0x96, 0x44, 0x7f, 0x81, 0xde, 0xb1, 0xbf, 0xe7,
  0xb1, 0x06, 0xee, 0x18, 0xe6, 0xfa, 0x2a, 0xef, 0xa4, 0x04, 0xc1, 0x81,
  0xb9, 0x0c, 0x81, 0x1a, 0x0f, 0xc8, 0xcc, 0xd7, 0xb9, 0x44, 0x36, 0xce,
  0x37, 0x18, 0xf0, 0x9b, 0x3a, 0xd9, 0x37, 0xd9, 0xca, 0xea, 0x56, 0xc2,
  0xb2, 0x7f, 0x72, 0x18, 0x19, 0x14, 0x38, 0xbc, 0x04, 0x26, 0x18, 0x30,
  0x5e, 0xdc, 0x11, 0xc6, 0xe9, 0xe6, 0x53, 0xdf, 0x6d, 0x5f, 0xc3, 0xfc,
  0x41, 0xa1, 0xda, 0x81, 0x2a, 0x7f, 0x0f, 0x26, 0x17, 0x3a, 0xf4, 0x6e,
  0xb7, 0xc9, 0x8a, 0xea, 0xf1, 0xfd, 0xff, 0xaf, 0x09, 0xa9, 0xb0, 0x81,
  0xf5, 0xed, 0x81, 0x07, 0x59, 0xc7, 0xb2, 0x6b, 0xd9, 0xe8, 0x28, 0x0e,
  0x1a, 0x3f, 0x5b, 0x03, 0x00, 0x9a, 0x02, 0xb7, 0x5b, 0xd5, 0x08, 0x61,
  0xc8, 0x95, 0x7f, 0xfd, 0xee, 0xcc, 0x1b, 0x06, 0x7f, 0xbe, 0x73, 0x0d,
  0xe0, 0x75, 0x08, 0x05, 0x33, 0xf3, 0x4c, 0x7b, 0xb1, 0xd0, 0x81, 0xc0,
  0x81, 0x3d, 0x14, 0x1c, 0x91, 0xd6, 0x12, 0xfc, 0x51, 0xe1, 0x05, 0x57,
  0x06, 0x15, 0x7f, 0x1b, 0x41, 0x19, 0x73, 0x31, 0x11, 0x61, 0xae, 0x42,
  0xe2, 0xd4, 0xc1, 0x81, 0x18, 0x0b, 0x76, 0xf5, 0xfe, 0xb8, 0x03, 0x1b,
  0x7e, 0x41, 0xf1, 0x0c, 0x46, 0x07, 0x63, 0x37, 0x8b, 0x13, 0x16, 0x02,
  0x60, 0x57, 0x08, 0x18, 0xd2, 0xf5, 0xda, 0xe7, 0x1d, 0x49, 0xb9, 0xe3,
  0xc4, 0xb5, 0x00, 0xd0, 0xf1, 0x1d, 0x91, 0x08, 0xf5, 0x96, 0xde, 0x7f,
  0xc5, 0x28, 0xd6, 0x30, 0x11, 0x74, 0x7b, 0xb3, 0x25, 0xb7, 0x12, 0xe2,
  0xc1, 0x7f, 0x01, 0xd6, 0xee, 0x3b, 0x7f, 0xd8, 0x03, 0x7b, 0x4a, 0x81,
  0x9c, 0x11, 0xcf, 0xb5, 0x1a, 0x56, 0x43, 0x52, 0x68, 0x07, 0xf4, 0x6f,
  0xb6, 0xd8, 0xc0, 0x7f, 0xd3, 0x07, 0x9d, 0xcd, 0xce, 0x25, 0x00, 0x14,
  0x10, 0x59, 0x03, 0xfa, 0xe7, 0xcf, 0x01, 0x8a, 0x77, 0x2d, 0xd2, 0xb5,
  0x29, 0xda, 0xed, 0xfe, 0xa0, 0xdb, 0xf0, 0x2c, 0xe3, 0xe0, 0x93, 0x0b,
  0x7d, 0xee, 0xd6, 0xfb, 0x17, 0x53, 0x4b, 0x6f, 0xd7, 0x05, 0xf0, 0x12,
  0xb6, 0x55, 0xed, 0x1e, 0xff, 0x52, 0x77, 0x35, 0xd1, 0x7f, 0x2a, 0x51,
  0xd7, 0xb2, 0x81, 0xb7, 0x14, 0x06, 0x28, 0x08, 0x36, 0x7f, 0x61, 0x3a,
  0xf3, 0x7f, 0xe0, 0xf4, 0x4a, 0xff, 0x56, 0x70, 0xbf, 0xec, 0x77, 0xba,
  0xf9, 0x7f, 0xe2, 0x00, 0x4a, 0x52, 0xc0, 0x23, 0x60, 0xde, 0xf8, 0xbe,
  0xef, 0x22, 0xa2, 0xf7, 0x18, 0x05, 0x06, 0x21, 0x00, 0x13, 0xd8, 0xdc,
  0x24, 0xc1, 0x29, 0xf3, 0x4b, 0xb3, 0x30, 0x1d, 0x51, 0x22, 0x7f, 0x5a,
  0xee, 0x1a, 0xbb, 0x0c, 0xda, 0x39, 0xbc, 0x96, 0x47, 0x73, 0x9a, 0x45,
  0xf8, 0x3d, 0x81, 0xd1, 0x1e, 0x8c, 0x40, 0x16, 0x7f, 0x1d, 0x2b, 0xe5,
  0x04, 0xda, 0xdf, 0x61, 0x32, 0x16, 0xa2, 0x18, 0xe2, 0x32, 0x12, 0xa5,
  0x33, 0xe6, 0x02, 0xea, 0x22, 0x73, 0xd2, 0xd2, 0x46, 0xfa, 0x2d, 0x0b,
  0x40, 0xb3, 0xb3, 0xfa, 0x1b, 0x18, 0x20, 0x10, 0x76, 0xe2, 0xd1, 0xee,
  0xfe, 0x4c, 0x1d, 0x74, 0xea, 0xb2, 0x6f, 0x0d, 0x81, 0x43, 0xc7, 0x2d,
  0x45, 0x37, 0x27, 0x41, 0xae, 0x12, 0xb8, 0xec, 0xe8, 0xde, 0x1d, 0xe4,
  0xc3, 0x16, 0x13, 0xf0, 0x7f, 0xce, 0x4a, 0x32, 0x29, 0xad, 0x39, 0xad,
  0x12, 0xe3, 0x7f, 0x4b, 0xe2, 0x3b, 0xe3, 0x28, 0x81, 0x21, 0xe3, 0x71,
  0x07, 0x34, 0xf7, 0x72, 0xbf, 0x3d, 0xf9, 0x7f, 0x98, 0x79, 0x21, 0xfc,
  0xe2, 0xfb, 0x33, 0x55, 0xdd, 0x1f, 0x92, 0x9f, 0x5e, 0x0f, 0x1c, 0x04,
  0xd0, 0x12, 0x81, 0xb6, 0x23, 0x02, 0x17, 0xc9, 0xd5, 0x7f, 0x17, 0xb8,
  0x59, 0x22, 0x88, 0x81, 0xa2, 0x43, 0xee, 0x2f, 0xde, 0x05, 0xd2, 0xf7,
  0x3e, 0xfa, 0x00, 0x44, 0xe7, 0x0d, 0x9c, 0xcf, 0x30, 0x5a, 0x12, 0x01,
  0x11, 0x81, 0x10, 0xe3, 0x16, 0x12, 0x32, 0xca, 0xfd, 0xe3, 0x19, 0xbd,
  0xe4, 0x81, 0x03, 0x99, 0xf5, 0xd0, 0x11, 0xe6, 0x22, 0x0b, 0xfa, 0xe5,
  0xea, 0x81, 0xd5, 0x05, 0xc0, 0xf2, 0x44, 0x02, 0xad, 0x31, 0xd5, 0xcf,
  0xee, 0xd4, 0xb2, 0x30, 0x1e, 0x13, 0x01, 0xea, 0x2c, 0x3d, 0x37, 0x0b,
  0xec, 0xeb, 0x1f, 0x7f, 0xd7, 0xf8, 0xd6, 0x7f, 0xf7, 0xf6, 0x31, 0xd5,
  0x2a, 0x1f, 0xa2, 0x43, 0x01, 0x3d, 0x3d, 0x28, 0xe2, 0xb8, 0xbb, 0x01,
  0x26, 0xf3, 0x8b, 0xd6, 0xc0, 0x07, 0xb7, 0xb8, 0xde, 0xbf, 0x02, 0x7f,
  0xec, 0x28, 0xba, 0x81, 0x03, 0x29, 0xf4, 0x23, 0x6b, 0xd8, 0x10, 0x38,
  0x2a, 0xa8, 0xab, 0x3c, 0x1b, 0xa5, 0xff, 0x66, 0xc0, 0xb4, 0xf3, 0x79,
  0xd7, 0xdd, 0x1e, 0x81, 0xef, 0xe9, 0xd8, 0xe7, 0xf5, 0x0a, 0x25, 0xe6,
  0x7f, 0x33, 0x4c, 0x0d, 0xcf, 0xf3, 0xf7, 0x3b, 0xd4, 0x9b, 0xf7, 0x17,
  0xf4, 0xe0, 0x89, 0x1b, 0xf4, 0xfe, 0x7b, 0x15, 0x13, 0x04, 0x18, 0xda,
  0x1f, 0xea, 0x33, 0xcc, 0x72, 0xe5, 0xbc, 0x36, 0x1d, 0x35, 0xe1, 0x9f,
  0x23, 0xe4, 0x0b, 0x08, 0x00, 0xe7, 0x00, 0x02, 0x0d, 0x0d, 0x02, 0xc7,
  0xcf, 0xa4, 0x81, 0xb0, 0x23, 0x3a, 0xf9, 0x6a, 0xe0, 0xf1, 0x04, 0x21,
  0x53, 0xd8, 0xd0, 0x26, 0x96, 0xd0, 0xde, 0x18, 0x7f, 0x05, 0xc4, 0xe6,
  0xc5, 0x7f, 0x32, 0xe1, 0x5b, 0x65, 0x7f, 0x6f, 0x4d, 0x06, 0xa6, 0x42,
  0xdb, 0x4c, 0x0b, 0x04, 0xe7, 0x12, 0x57, 0xb4, 0x58, 0x17, 0x99, 0x4f,
  0xb4, 0x31, 0xd8, 0x44, 0x97, 0x01, 0xef, 0xf0, 0xc1, 0xc5, 0xbc, 0x81,
  0x07, 0xb3, 0xf1, 0xf1, 0xff, 0xd1, 0xce, 0x0e, 0x09, 0x28, 0xef, 0xb0,
  0x16, 0x04, 0x7f, 0x7a, 0x13, 0xb6, 0xc4, 0x20, 0xed, 0x15, 0xe5, 0xd0,
  0x0e, 0x12, 0x49, 0xe8, 0xdd, 0xf2, 0x16, 0x43, 0xee, 0x22, 0x33, 0xf3,
  0x43, 0xe9, 0x46, 0x53, 0x1b, 0xf2, 0x1e, 0xd0, 0xaa, 0xcb, 0xdc, 0x1f,
  0xa6, 0x3b, 0xce, 0xfc, 0xd5, 0xa3, 0xf7, 0xd6, 0xe7, 0xb6, 0xd4, 0xc5,
  0x40, 0xfc, 0xd0, 0xf9, 0xfb, 0xbf, 0x19, 0x48, 0xbf, 0xe0, 0x81, 0xdb,
  0x0a, 0x81, 0xe1, 0x09, 0xc5, 0x16, 0xde, 0x09, 0x12, 0x99, 0x81, 0xfb,
  0x27, 0x05, 0xe3, 0x7f, 0xb9, 0xf6, 0x81, 0xf6, 0xe9, 0x1b, 0x1b, 0x6b,
  0xed, 0xba, 0x81, 0x27, 0x19, 0xde, 0xf1, 0x19, 0x4a, 0x0e, 0xbd, 0x19,
  0xce, 0x15, 0x0f, 0xc9, 0x2b, 0xff, 0x0f, 0xee, 0xc5, 0xea, 0x13, 0x00,
  0xf1, 0xbe, 0xec, 0xe5, 0x1d, 0x30, 0xbd, 0xf9, 0x3c, 0xde, 0x39, 0xe8,
  0x0c, 0x81, 0xe4, 0xf7, 0x86, 0x22, 0x81, 0xf1, 0x73, 0x21, 0x46, 0x1d,
  0x34, 0x0b, 0xce, 0xdf, 0x15, 0x3f, 0x81, 0xe8, 0x81, 0xb8, 0x3d, 0xef,
  0xd6, 0x0a, 0x81, 0xc2, 0xff, 0x1c, 0x29, 0x7f, 0xc0, 0x0c, 0x30, 0x02,
  0x1e, 0x0c, 0xd8, 0xeb, 0xcf, 0x2d, 0x02, 0xe3, 0x12, 0x81, 0xb1, 0x12,
  0x46, 0x73, 0x92, 0x13, 0x0c, 0x26, 0xe7, 0x32, 0xe5, 0x17, 0x1b, 0x6e,
  0xd6, 0x41, 0xfc, 0x52, 0x0d, 0xdd, 0x14, 0xf2, 0x7d, 0xc5, 0x08, 0x21,
  0xca, 0x61, 0x81, 0x0f, 0xc7, 0xe8, 0xf0, 0x26, 0x01, 0x14, 0x0f, 0xf2,
  0x16, 0xb4, 0x17, 0x24, 0x3d, 0xd7, 0x77, 0x37, 0x14, 0x19, 0x33, 0x3f,
  0xd6, 0x7a, 0x62, 0x1d, 0xef, 0xfe, 0x81, 0xdb, 0xe3, 0xe2, 0x3d, 0x41,
  0xca, 0x9d, 0xff, 0x9f, 0xb9, 0xa1, 0x9e, 0xe4, 0x48, 0x43, 0x16, 0xfa,
  0x1d, 0x0e, 0x13, 0xf2, 0x0e, 0x06, 0xfa, 0x2c, 0x7f, 0xd7, 0xf8, 0x4f,
  0x20, 0x3a, 0x23, 0x00, 0x3a, 0xca, 0x75, 0x4c, 0xef, 0x9a, 0x34, 0xf9,
  0xb7, 0x55, 0xe1, 0x81, 0x81, 0x2c, 0xe6, 0xb5, 0xe6, 0xd3, 0xd6, 0x07,
  0xb0, 0xfd, 0x00, 0x8a, 0xcc, 0xbc, 0x4d, 0xeb, 0xde, 0xad, 0x39, 0x03,
  0xd9, 0x00, 0x81, 0x83, 0xfc, 0xd8, 0x01, 0x10, 0xd9, 0x06, 0xe1, 0xa4,
  0xb6, 0x96, 0xc8, 0x01, 0xfc, 0x7f, 0xd4, 0xec, 0x7e, 0x7f, 0x1e, 0x2a,
  0x72, 0x1e, 0xe5, 0x3b, 0x24, 0xdc, 0xc6, 0x58, 0x0a, 0x43, 0xa3, 0x17,
  0xd9, 0xd4, 0x8c, 0x7f, 0x14, 0xf3, 0xd5, 0x3a, 0x69, 0xbe, 0x45, 0xca,
  0x17, 0x32, 0x49, 0xf9, 0x22, 0xc0, 0xec, 0x36, 0x11, 0xc8, 0x14, 0xee,
  0x0c, 0xd2, 0x3a, 0x67, 0x68, 0x3d, 0x51, 0x81, 0x65, 0x01, 0x3d, 0x23,
  0x4f, 0x68, 0x9a, 0x26, 0xac, 0xba, 0xf4, 0xd6, 0x95, 0x67, 0xbd, 0x0a,
  0x75, 0x29, 0xa8, 0x38, 0xc8, 0xdc, 0x34, 0xdb, 0x43, 0xf7, 0x81, 0x64,
  0x49, 0xc3, 0xa4, 0x47, 0x91, 0xe1, 0x0e, 0x06, 0x58, 0x27, 0xf9, 0xe8,
  0xa5, 0xe4, 0x5c, 0xe8, 0xc3, 0x81, 0x61, 0x43, 0x81, 0x25, 0x84, 0xdb,
  0xec, 0x96, 0xfc, 0xc9, 0x40, 0xff, 0x16, 0x16, 0x0b, 0x7d, 0xc8, 0x21,
  0x81, 0xc4, 0x0c, 0xd1, 0xf5, 0xec, 0x18, 0x63, 0xb4, 0x18, 0x78, 0x08,
  0xf6, 0x81, 0xcc, 0x2c, 0xfc, 0x10, 0xbf, 0x16, 0x00, 0x0b, 0xf3, 0xcd,
  0xc0, 0xc4, 0xc4, 0x36, 0x2e, 0x85, 0x30, 0xae, 0x0f, 0xc6, 0xe7, 0xfb,
  0x83, 0x44, 0x20, 0x7f, 0xc1, 0x81, 0xd6, 0x61, 0xc2, 0x29, 0xb2, 0x7d,
  0x2b, 0x8e, 0x28, 0x56, 0xda, 0x7f, 0x9f, 0x36, 0x52, 0x7f, 0x29, 0x9b,
  0x36, 0xdb, 0x37, 0x87, 0x7d, 0x39, 0x7d, 0x1f, 0xeb, 0x3b, 0xdf, 0x2b,
  0xe6, 0xbe, 0x0a, 0x3c, 0xa5, 0x46, 0xfb, 0xe8, 0xda, 0x30, 0x6e, 0x75,
  0xeb, 0x50, 0x7f, 0xe4, 0x96, 0x3c, 0x60, 0xe3, 0x75, 0x4c, 0xfa, 0x7f,
  0x7f, 0x95, 0xf9, 0x3a, 0x51, 0x4b, 0x7f, 0x60, 0xfe, 0xd5, 0xa7, 0x26,
  0x0c, 0xbe, 0xda, 0xf8, 0x35, 0xeb, 0x17, 0x39, 0x89, 0xd4, 0x0f, 0x03,
  0x23, 0x2b, 0xf6, 0xe5, 0x48, 0x41, 0xca, 0xd0, 0xf9, 0x78, 0xc7, 0x0d,
  0x10, 0x06, 0xe2, 0xbc, 0xcc, 0x3b, 0xe0, 0xfb, 0x03, 0x2c, 0x04, 0xe2,
  0xe6, 0x36, 0xb8, 0xb6, 0x2d, 0xe8, 0x0c, 0x2e, 0x66, 0x86, 0xfb, 0xfe,
  0xd2, 0x2c, 0xb8, 0xc4, 0x1d, 0xed, 0x1a, 0xae, 0xbe, 0x4b, 0xb1, 0x97,
  0x81, 0x25, 0xf7, 0xe9, 0x81, 0xd5, 0xf9, 0x11, 0x2c, 0x60, 0x81, 0xba,
  0xc8, 0x11, 0x02, 0xe1, 0xc0, 0xc1, 0x8d, 0xf2, 0x36, 0x13, 0x07, 0x81,
  0xea, 0x57, 0x04, 0x14, 0xc1, 0x10, 0x02, 0x28, 0xee, 0x44, 0xed, 0xe9,
  0x7f, 0x27, 0x5d, 0x18, 0xce, 0x94, 0x09, 0x81, 0xd1, 0xb0, 0xd9, 0xb7,
  0x24, 0x0c, 0x02, 0xf6, 0x07, 0xbd, 0xcd, 0x3d, 0xd6, 0x23, 0x51, 0x66,
  0x4c, 0x07, 0xce, 0x97, 0x81, 0xfd, 0xb9, 0x3e, 0x90, 0x95, 0x12, 0x16,
  0xfb, 0x2e, 0xf6, 0xff, 0x47, 0x62, 0xde, 0x1c, 0xf0, 0xb4, 0xba, 0xa1,
  0x6d, 0xda, 0x1a, 0xa5, 0x1d, 0xc8, 0xf2, 0x7c, 0xec, 0x49, 0x10, 0x0d,
  0xb6, 0x3d, 0x62, 0x3a, 0xd1, 0x9b, 0xe8, 0xb9, 0x5a, 0xf5, 0x1b, 0x20,
  0x7f, 0x48, 0xc4, 0x36, 0x7f, 0xe2, 0x16, 0x33, 0x08, 0xef, 0x30, 0xb3,
  0x46, 0x0d, 0xad, 0x7f, 0xd2, 0x81, 0xa9, 0xd7, 0x07, 0xf4, 0x37, 0x1d,
  0x11, 0xba, 0xe7, 0xf9, 0x19, 0x47, 0xc1, 0x25, 0xde, 0x6c, 0xb0, 0x20,
  0x7f, 0x8e, 0x51, 0x93, 0x57, 0x17, 0x08, 0x1a, 0xe1, 0x13, 0xb0, 0x96,
  0x8f, 0x1a, 0x7a, 0x1b, 0xef, 0x8e, 0x79, 0x93, 0x83, 0x16, 0x82, 0x1a,
  0x60, 0x8a, 0xfc, 0x0a, 0xda, 0x93, 0x31, 0x0f, 0x78, 0x93, 0x08, 0x86,
  0x4e, 0x13, 0x58, 0x17, 0x00, 0x8e, 0x5c, 0x0a, 0x86, 0x12, 0x22, 0x0a,
  0x4c, 0x03, 0xb1, 0x17, 0xbb, 0x96, 0x0a, 0x12, 0xbd, 0x12, 0xda, 0x8e,
  0x8e, 0x9a, 0x59, 0x16, 0xbd, 0x13, 0x2b, 0x9a, 0xb7, 0x97, 0x35, 0x16,
  0x91, 0x12, 0x82, 0x97, 0x55, 0x9a, 0xe0, 0x16, 0xa4, 0x16, 0x51, 0x9b,
  0x89, 0x9b, 0xac, 0x16, 0xa1, 0x12, 0x85, 0x9a, 0x73, 0x9a, 0xa0, 0x17,
  0x84, 0x96, 0xcc, 0x8e, 0x4b, 0x1a, 0x9e, 0x1a, 0x0c, 0x9b, 0x6e, 0x93,
  0xa7, 0x1b, 0xf4, 0x1b, 0x3a, 0x9a, 0xec, 0x8f, 0xdd, 0x1a, 0xae, 0x1a,
  0x80, 0x0f, 0x3d, 0x03, 0xcb, 0x12, 0x9f, 0x17, 0xc2, 0x07, 0x22, 0x16,
  0x02, 0x16, 0x51, 0x1a, 0x3c, 0x16, 0x43, 0x82, 0x5b, 0x12, 0xb7, 0x17,
  0xe9, 0x8a, 0xc8, 0x12, 0xfd, 0x16, 0x29, 0x17, 0xd7, 0x0a, 0x50, 0x16,
  0x05, 0x0f, 0x94, 0x1a, 0xa4, 0x82, 0x50, 0x16, 0x33, 0x96, 0x26, 0x1a,
  0x95, 0x0b, 0xa8, 0x17, 0x33, 0x92, 0xc9, 0x96, 0xd5, 0x96, 0x9a, 0x1a,
  0x0d, 0x12, 0x6a, 0x92, 0x89, 0x9a, 0x72, 0x1a, 0x1b, 0x0e, 0x6e, 0x12,
  0xbd, 0x96, 0x5e, 0x8e, 0x8b, 0x13, 0x2b, 0x1a, 0x78, 0x9a, 0x90, 0x03,
  0x0b, 0x13, 0x80, 0x1e, 0xd5, 0x96, 0x05, 0x17, 0x1e, 0x16, 0x4b, 0x1a,
  0xbd, 0x12, 0x66, 0x1a, 0x0c, 0x16, 0x7a, 0x9a, 0xd5, 0x0b, 0x18, 0x1b,
  0xa8, 0x16, 0xa6, 0x9a, 0x75, 0x0b, 0x9a, 0x1a, 0x7c, 0x16, 0x28, 0x9a,
  0x18, 0x0f, 0xbe, 0x13, 0xdc, 0x07, 0xf7, 0x17, 0xba, 0x16, 0x74, 0x8e,
  0xae, 0x0a, 0x5c, 0x1a, 0x7e, 0x16, 0x55, 0x96, 0xb8, 0x00, 0x3a, 0x1a,
  0x20, 0x97, 0x17, 0x9a, 0x9e, 0x8b, 0x0e, 0x96, 0x7a, 0x9b, 0x85, 0x9b,
  0x7e, 0x8b, 0x17, 0x9a, 0xd6, 0x9a, 0xc2, 0x97, 0xcf, 0x8e, 0x41, 0x9a,
  0x3c, 0x16, 0x45, 0x9a, 0x7d, 0x93, 0x94, 0x16, 0xde, 0x8a, 0xd5, 0x9b,
  0x06, 0x97, 0x68, 0x17, 0x14, 0x97, 0x8b, 0x9a, 0x8a, 0x97, 0x08, 0x17,
  0xd3, 0x16, 0x39, 0x0a, 0xb5, 0x96, 0x61, 0x97, 0x8c, 0x1a, 0xb2, 0x07,
  0x33, 0x9a, 0x85, 0x9a, 0x36, 0x1a, 0x46, 0x13, 0xbb, 0x93, 0x15, 0x9a,
  0x84, 0x16, 0x84, 0x12, 0x2e, 0x8b, 0x3f, 0x0b, 0xe1, 0x8f, 0xa3, 0x06,
  0xfe, 0x96, 0x61, 0x8e, 0x44, 0x97, 0x94, 0x13, 0x47, 0x8e, 0x28, 0x93,
  0x18, 0x01, 0x64, 0x97, 0x36, 0x96, 0x65, 0x1a, 0xef, 0x92, 0x4c, 0x9a,
  0x43, 0x9a, 0x97, 0x1b, 0x02, 0x12, 0x88, 0x97, 0x0a, 0x97, 0xb7, 0x1a,
  0x06, 0x03, 0x06, 0x8a, 0xa9, 0x92, 0xa7, 0x12, 0x06, 0x9a, 0x5d, 0x0e,
  0x26, 0x8b, 0xd1, 0x8e, 0xea, 0x9a, 0xcd, 0x0e, 0x03, 0x16, 0x3b, 0x07,
  0xec, 0x0e, 0x6e, 0x16, 0x6e, 0x0e, 0xb4, 0x17, 0x24, 0x8e, 0xf2, 0x17,
  0x2e, 0x0f, 0x58, 0x1a, 0xd8, 0x0b, 0x32, 0x17, 0x7b, 0x0b, 0x84, 0x16,
  0x15, 0x9a, 0xda, 0x92, 0x70, 0x96, 0x9a, 0x9a, 0xab, 0x9b, 0x3a, 0x0b,
  0xa1, 0x0f, 0x34, 0x9e, 0x45, 0x9a, 0x4b, 0x17, 0xe2, 0x0a, 0x44, 0x9b,
  0x59, 0x12, 0x99, 0x8e, 0xab, 0x92, 0xad, 0x0e, 0xb9, 0x12, 0x64, 0x92,
  0x05, 0x9a, 0x2f, 0x12, 0x1c, 0x16, 0x52, 0x8b, 0xd6, 0x8f, 0xcd, 0x0e,
  0x25, 0x97, 0x18, 0x97, 0xb5, 0x0b, 0xf6, 0x12, 0x35, 0x8f, 0xf2, 0x9a,
  0xca, 0x0e, 0x67, 0x17, 0xbb, 0x0e, 0xf0, 0x96, 0x55, 0x0b, 0x6e, 0x13,
  0xed, 0x97, 0x4c, 0x92, 0xcc, 0x17, 0xca, 0x13, 0x36, 0x9b, 0x1e, 0x97,
  0xb4, 0x17, 0x05, 0x17, 0x1e, 0x9a, 0xb4, 0x93, 0x58, 0x17, 0x07, 0x1a,
  0x43, 0x17, 0x7d, 0x1a, 0x79, 0x92, 0xd4, 0x0e, 0x13, 0x16, 0x9d, 0x1b,
  0xe0, 0x97, 0x39, 0x16, 0x23, 0x17, 0xf3, 0x1a, 0xcc, 0x97, 0x48, 0x0a,
  0x45, 0x8f, 0xa0, 0x0e, 0x98, 0x17, 0x05, 0x12, 0xda, 0x01, 0x71, 0x8e,
  0xbc, 0x1a, 0x75, 0x0a, 0xda, 0x01, 0x7c, 0x97, 0x54, 0x1a, 0x25, 0x12,
  0x40, 0x43, 0xac, 0x47, 0x1c, 0x46, 0x4b, 0x46, 0xc9, 0x42, 0x39, 0x43,
  0x5f, 0x43, 0x91, 0x47, 0x52, 0x42, 0x3d, 0x47, 0xcd, 0x46, 0x05, 0x42,
  0xe7, 0x47, 0x67, 0x46, 0x74, 0x46, 0x72, 0x47, 0x29, 0x46, 0xe7, 0x47,
  0x8d, 0x46, 0x0f, 0x46, 0xd3, 0x47, 0xdb, 0x42, 0x0e, 0x42, 0x3f, 0x42,
  0x70, 0x3e, 0x6a, 0x42, 0x3d, 0x43, 0x41, 0x47, 0x57, 0x47, 0x14, 0x46,
  0xc8, 0x43, 0x0f, 0x43, 0xda, 0x46, 0x26, 0x42, 0xab, 0x42, 0xe2, 0x47,
  0x0b, 0x42, 0x6b, 0x43, 0x7b, 0x42, 0xbb, 0x46, 0xb1, 0x47, 0x7b, 0x42,
  0x92, 0x42, 0x61, 0x46, 0x49, 0x4b, 0xa4, 0x4b, 0x1d, 0x42, 0xb9, 0x46,
  0x31, 0x42, 0x91, 0x46, 0x74, 0x47, 0x34, 0x47, 0xd2, 0x47, 0xe1, 0x47,
  0xae, 0x47, 0xa2, 0x46, 0x95, 0x47, 0x36, 0x42, 0x1f, 0x46, 0xa3, 0x46,
  0xef, 0x47, 0x19, 0x47, 0x7d, 0x46, 0x03, 0x46, 0x93, 0x46, 0xbd, 0x42,
  0x2d, 0x42, 0x2f, 0x42, 0xcc, 0x42, 0xa3, 0x47, 0x99, 0x42, 0x24, 0x47,
  0x20, 0x46, 0x33, 0x42, 0x4c, 0x43, 0x71, 0x4b, 0xf0, 0x46, 0xbf, 0x42,
  0xbc, 0x46, 0xe1, 0x47, 0x99, 0x42, 0xde, 0x46, 0x80, 0x42, 0x6b, 0x47,
  0x67, 0x46, 0xa7, 0x46, 0x32, 0x47, 0xd9, 0x47, 0xa3, 0x42, 0x1c, 0x46,
  0x25, 0x46, 0x52, 0x42, 0x78, 0x42, 0x62, 0x42, 0xb5, 0x46, 0xcb, 0x43,
  0x30, 0x4e, 0x11, 0x21, 0x51, 0xef, 0x3a, 0x7f, 0x23, 0x81, 0x27, 0x19,
  0xf0, 0xd4, 0xfc, 0x6d, 0x81, 0xf8, 0xd1, 0x2f, 0xe5, 0xeb, 0x7f, 0x29,
  0x36, 0xa3, 0x1f, 0x00, 0x45, 0xed, 0x5d, 0x6d, 0x30, 0x33, 0x2b, 0x0f,
  0xd0, 0xfe, 0x38, 0x3a, 0xe5, 0xcf, 0x7f, 0x2a, 0xef, 0x13, 0x2e, 0x3f,
  0x03, 0x5f, 0x06, 0x07, 0x8e, 0x81, 0xa2, 0x81, 0x7f, 0x4a, 0xf7, 0xfd,
  0xdb, 0xeb, 0xfa, 0x3e, 0xe6, 0xf4, 0x1c, 0x3e, 0xf0, 0x06, 0x03, 0x49,
  0x5a, 0xb3, 0x98, 0x5f, 0x09, 0x81, 0xdd, 0x5b, 0xee, 0xb2, 0xf3, 0x9b,
  0x73, 0x01, 0x81, 0x7f, 0x40, 0x08, 0x1d, 0x11, 0x81, 0xf4, 0xdb, 0xbf,
  0x0f, 0x3a, 0xac, 0x2b, 0xd6, 0x65, 0xfa, 0x18, 0xfb, 0x49, 0x01, 0xc6,
  0x05, 0xc9, 0x19, 0xdb, 0x22, 0x81, 0x85, 0x10, 0x30, 0xee, 0xc8, 0x08,
  0xf0, 0x8a, 0x99, 0x66, 0xbe, 0xbd, 0xc5, 0x7f, 0x7f, 0xb3, 0x9b, 0x2a,
  0x07, 0xf5, 0x11, 0xa1, 0x2e, 0xa7, 0x81, 0x1b, 0x20, 0xfe, 0xe3, 0x07,
  0x86, 0xf8, 0x14, 0x3f, 0xc1, 0xbe, 0x7f, 0x2c, 0xd4, 0x09, 0x1b, 0x40,
  0x81, 0x22, 0x54, 0x7f, 0xa8, 0x81, 0x7f, 0x54, 0x13, 0x32, 0x28, 0xf2,
  0xca, 0xfe, 0x1f, 0x3e, 0xf8, 0xd1, 0x34, 0x32, 0xd5, 0x02, 0x12, 0x33,
  0x41, 0x45, 0x57, 0x54, 0x9e, 0x12, 0xb9, 0xe6, 0xf8, 0x2b, 0x17, 0x07,
  0x7f, 0x0c, 0x7f, 0x7f, 0x25, 0x81, 0xb5, 0x48, 0x28, 0x12, 0x1f, 0xff,
  0x1d, 0x42, 0x41, 0x46, 0x96, 0x1e, 0xd5, 0xe6, 0xcd, 0x2d, 0x1f, 0x0f,
  0x12, 0xf9, 0xd2, 0xfd, 0x00, 0x26, 0x99, 0x7f, 0x1c, 0x1c, 0x06, 0x04,
  0x07, 0x07, 0x08, 0x37, 0x81, 0x7f, 0x16, 0x5d, 0x40, 0xec, 0xfe, 0x22,
  0x0c, 0xea, 0x23, 0x1c, 0xfc, 0x00, 0x7f, 0x0f, 0x14, 0x16, 0x1b, 0x0c,
  0xce, 0x07, 0x02, 0xfb, 0x8c, 0x4f, 0x7f, 0x4b, 0xd4, 0x0d, 0x07, 0x1f,
  0xe9, 0x7f, 0x05, 0x81, 0x9c, 0x1f, 0x9d, 0x65, 0xf6, 0x6b, 0x15, 0x09,
  0x08, 0xe8, 0xfc, 0xdb, 0x7f, 0x31, 0x34, 0xbe, 0x08, 0xfb, 0xf0, 0xcc,
  0xbb, 0xf9, 0xf5, 0x7e, 0xfc, 0x2a, 0x0d, 0x78, 0xbc, 0x0a, 0xee, 0x75,
  0x34, 0x38, 0x1d, 0x5f, 0x81, 0x3c, 0x7f, 0xa5, 0x9b, 0x21, 0x1b, 0xbd,
  0xbc, 0xae, 0xf4, 0x7f, 0xf4, 0x81, 0xf6, 0x6d, 0xc9, 0x17, 0xf0, 0x6f,
  0x01, 0x15, 0x11, 0x21, 0x81, 0x1b, 0x06, 0xd0, 0x45, 0x29, 0x10, 0xf9,
  0x17, 0x33, 0xf0, 0xae, 0xf0, 0x7f, 0x7f, 0x9d, 0x4f, 0x52, 0x1b, 0x81,
  0x2b, 0x14, 0x09, 0x1d, 0x8f, 0x11, 0xf9, 0xb4, 0x49, 0x1a, 0x09, 0xf0,
  0x2a, 0xd1, 0x01, 0xf2, 0x42, 0x81, 0x11, 0x4c, 0x11, 0x0f, 0xf4, 0xf2,
  0x7f, 0xf3, 0x53, 0x69, 0xc1, 0x0f, 0x20, 0x7f, 0xee, 0x03, 0x81, 0x2f,
  0xfb, 0x20, 0xf8, 0xf6, 0x06, 0x42, 0x17, 0x25, 0x0e, 0x0c, 0x05, 0xf6,
  0x9b, 0xca, 0x29, 0xed, 0x8b, 0xf1, 0xd7, 0x8b, 0xe5, 0x8e, 0x01, 0x00,
  0x81, 0xfb, 0x59, 0xcd, 0xcb, 0x81, 0x81, 0x81, 0xa3, 0xa6, 0xec, 0xbf,
  0xd9, 0xa6, 0x22, 0x12, 0xfa, 0xed, 0xdb, 0xdc, 0xdb, 0x9b, 0x14, 0x27,
  0xd3, 0x81, 0xd6, 0xf0, 0x9a, 0xac, 0xaa, 0x17, 0xed, 0x0b, 0x2e, 0x2e,
  0xef, 0x9a, 0x81, 0xef, 0x0f, 0xa5, 0x9f, 0x3f, 0xe6, 0xcf, 0x1c, 0x7f,
  0x20, 0xa8, 0xfd, 0xf3, 0x7f, 0x98, 0xf4, 0x0e, 0x0f, 0x1b, 0x30, 0x17,
  0xf1, 0x42, 0xb2, 0xe2, 0x7f, 0xcd, 0x30, 0xd9, 0x21, 0xee, 0xb2, 0xdb,
  0x19, 0x7f, 0xc5, 0x81, 0x0c, 0x18, 0x3e, 0xd0, 0x69, 0xd1, 0xc6, 0x8e,
  0xe5, 0x14, 0xe4, 0xd7, 0x38, 0xb3, 0x81, 0xfa, 0x0e, 0xdf, 0xf9, 0xf7,
  0xb2, 0xb4, 0x93, 0x81, 0x81, 0x0c, 0xaf, 0x15, 0xee, 0xfa, 0x18, 0x2a,
  0x28, 0x16, 0x8d, 0xac, 0x1f, 0x23, 0x55, 0x08, 0xd0, 0x7f, 0x0e, 0xfc,
  0x3e, 0xa4, 0xc6, 0xb9, 0x57, 0xf9, 0x81, 0x4e, 0xfe, 0xfb, 0x1e, 0x38,
  0x94, 0xeb, 0x8b, 0x1b, 0x01, 0xd5, 0xd9, 0x50, 0x0b, 0xf3, 0x08, 0x2e,
  0x11, 0x81, 0xbe, 0x7f, 0x16, 0xe6, 0x81, 0x68, 0x50, 0x9c, 0x38, 0x4c,
  0x81, 0xfd, 0xa8, 0x00, 0xf0, 0xcd, 0x03, 0x5d, 0xf1, 0xf2, 0xf6, 0x13,
  0xd2, 0x20, 0x52, 0xd6, 0x81, 0xea, 0x52, 0xbd, 0xa4, 0x2c, 0x98, 0xeb,
  0xa8, 0x4f, 0x7f, 0xdf, 0xf8, 0x81, 0x1b, 0x7f, 0xaf, 0x1e, 0xbf, 0x15,
  0xfb, 0x06, 0xfe, 0xce, 0x76, 0xd9, 0xe2, 0xf0, 0x01, 0x1a, 0x86, 0x08,
  0xda, 0x64, 0x2f, 0x1b, 0xc9, 0xfc, 0xd2, 0xad, 0x0c, 0x01, 0x0b, 0x77,
  0xe5, 0x7f, 0x7f, 0x2c, 0x0d, 0x20, 0x94, 0xd7, 0x7f, 0xd8, 0xfb, 0x7f,
  0xe5, 0x46, 0x17, 0x19, 0xcb, 0xee, 0xef, 0xfa, 0x0f, 0xfc, 0x11, 0x78,
  0xc9, 0x19, 0x37, 0xc9, 0x81, 0x4b, 0x7f, 0x81, 0xeb, 0x11, 0x20, 0xcf,
  0xb9, 0x17, 0xd8, 0x86, 0xcd, 0x32, 0x91, 0x97, 0xaa, 0x1a, 0xeb, 0x9b,
  0xcd, 0xcb, 0x08, 0xdf, 0x87, 0x81, 0x19, 0xb7, 0xf9, 0xfb, 0x02, 0xd8,
  0xe2, 0xc7, 0x81, 0x64, 0x6a, 0x39, 0xb3, 0xc7, 0xc0, 0xdd, 0x1f, 0xf0,
  0x00, 0xc7, 0xb2, 0x7f, 0x7f, 0x7f, 0x5f, 0xc9, 0xf4, 0xb8, 0x09, 0xe4,
  0xf4, 0xea, 0x94, 0x4c, 0x06, 0xea, 0x8c, 0xcd, 0xd6, 0xfa, 0x1b, 0x00,
  0x18, 0xdb, 0x2f, 0x01, 0x7f, 0x8f, 0xdf, 0x7f, 0xff, 0xe3, 0x01, 0xfb,
  0x0a, 0xe2, 0x7f, 0xe4, 0xa5, 0xf9, 0xaf, 0x59, 0xe5, 0xb2, 0xf6, 0xbe,
  0x00, 0xe2, 0x22, 0xfa, 0xb1, 0x81, 0xf5, 0x6e, 0xf0, 0xe0, 0xfb, 0x04,
  0xc1, 0xa4, 0xfb, 0x0b, 0xcb, 0xd4, 0x1f, 0x60, 0xd4, 0x0a, 0xe0, 0xdd,
  0x81, 0xab, 0x47, 0x40, 0xd3, 0x9b, 0x7f, 0x7f, 0xd8, 0x7f, 0x46, 0x16,
  0xdb, 0xb9, 0x0d, 0xe5, 0xbe, 0xf4, 0x1f, 0x09, 0xdb, 0x02, 0xeb, 0xd0,
  0xb4, 0x05, 0xdf, 0x4a, 0x1e, 0x0c, 0xa0, 0x0b, 0xe2, 0x7f, 0xd8, 0x0c,
  0x76, 0x71, 0xdb, 0x2a, 0x69, 0x76, 0x81, 0x81, 0x7f, 0x53, 0xf7, 0x07,
  0xcf, 0xf5, 0xf7, 0x44, 0x0e, 0xe4, 0xf6, 0x1b, 0xdf, 0x7c, 0x0e, 0x1d,
  0x4a, 0x11, 0x40, 0xfe, 0xe7, 0xaa, 0x26, 0xee, 0x07, 0xf4, 0x12, 0xe7,
  0x5e, 0xe2, 0x7f, 0x1a, 0x81, 0xb3, 0x30, 0x7f, 0xe7, 0xdd, 0x2b, 0xec,
  0x15, 0x34, 0x26, 0xfd, 0xed, 0x7f, 0x07, 0xe7, 0xfe, 0x05, 0x07, 0xeb,
  0xac, 0x9e, 0x8a, 0x9e, 0x6d, 0x1e, 0x9d, 0x96, 0x77, 0x9a, 0xf6, 0x8a,
  0xc5, 0x8b, 0xde, 0x86, 0x16, 0x9f, 0xa0, 0x17, 0xb6, 0x1a, 0x37, 0x97,
  0x82, 0x1b, 0x2b, 0x9e, 0x5d, 0x92, 0xdd, 0x9b, 0x13, 0x4e, 0xf7, 0x4f,
  0x2e, 0x4f, 0xe2, 0x4f, 0x1d, 0x4a, 0x59, 0x4f, 0x45, 0x4f, 0xe9, 0x4e,
  0x17, 0x4a, 0x85, 0x4f, 0xc5, 0x4f, 0x1e, 0x4f, 0x98, 0x4f, 0x1b, 0x4a,
  0x55, 0x4a, 0x0b, 0x4a, 0x84, 0x2d, 0x2b, 0xc7, 0x34, 0x14, 0x26, 0xe5,
  0x36, 0xe3, 0xef, 0x07, 0x09, 0xf9, 0xf9, 0x0e, 0x23, 0x03, 0xcf, 0x0a,
  0x82, 0x1c, 0x1f, 0xf3, 0x33, 0xf3, 0xa4, 0x11, 0x12, 0x4c, 0xcc, 0xb7,
  0xad, 0xdd, 0xaa, 0xee, 0xc6, 0xfa, 0x03, 0x14, 0x24, 0xa7, 0x2e, 0x09,
  0xfd, 0xfc, 0xff, 0xc1, 0x0e, 0x09, 0xd1, 0xfb, 0x1d, 0xd8, 0x3c, 0xd8,
  0xd7, 0x81, 0x52, 0x45, 0xfa, 0xd2, 0x10, 0xfe, 0xaa, 0x01, 0xfc, 0xcd,
  0xfc, 0x06, 0x30, 0xe7, 0x24, 0xf2, 0x01, 0xed, 0xdb, 0x2d, 0x1f, 0x3e,
  0xc5, 0x4a, 0x4e, 0xdc, 0xe8, 0x35, 0xfc, 0xda, 0xbc, 0x3e, 0xea, 0x2e,
  0xab, 0x15, 0xd7, 0xb1, 0x27, 0x14, 0x0b, 0xdb, 0xf8, 0x0e, 0xc2, 0xe0,
  0xc9, 0xd0, 0xeb, 0xfb, 0x10, 0xf9, 0xd9, 0x12, 0x01, 0xfa, 0x11, 0xbd,
  0x49, 0xcb, 0xd7, 0xcf, 0xa0, 0xa1, 0x47, 0x25, 0xea, 0xfc, 0x03, 0xf7,
  0x19, 0xf6, 0x60, 0x16, 0x02, 0xf2, 0xcf, 0x25, 0x86, 0xf5, 0xe8, 0x2b,
  0x15, 0xce, 0x10, 0xfa, 0x10, 0xed, 0xd0, 0x23, 0xe4, 0xe8, 0x2b, 0x0a,
  0x02, 0xc9, 0xe2, 0xf5, 0xce, 0xd1, 0xdc, 0x3a, 0x07, 0xd5, 0x75, 0x4b,
  0x03, 0xce, 0x1e, 0x1f, 0x02, 0xbf, 0xd1, 0x19, 0x14, 0x7f, 0x11, 0xd4,
  0x05, 0xd7, 0x31, 0x44, 0x81, 0xe1, 0x9a, 0x25, 0xe2, 0xf7, 0xbb, 0xca,
  0xdf, 0x7f, 0xfb, 0x21, 0x56, 0x20, 0xf4, 0x20, 0xeb, 0xd0, 0xff, 0xcf,
  0x0c, 0xc0, 0x10, 0x02, 0x09, 0x18, 0xcf, 0xf9, 0xd8, 0xf3, 0x81, 0xfd,
  0xe8, 0xe5, 0x1d, 0x13, 0xe1, 0x26, 0x3e, 0x05, 0x23, 0xf9, 0xf7, 0x2c,
  0xb7, 0x81, 0xa1, 0xff, 0x38, 0xaa, 0x53, 0xc5, 0xe2, 0x42, 0xcf, 0x7f,
  0x41, 0xd0, 0x34, 0xf8, 0xd0, 0xb5, 0x08, 0x06, 0x24, 0xb9, 0xf8, 0x48,
  0x11, 0x11, 0x4d, 0xc5, 0x28, 0x36, 0x52, 0xf0, 0xeb, 0xc2, 0x22, 0x1e,
  0x40, 0x1e, 0xe1, 0x10, 0xcd, 0x73, 0xe8, 0x26, 0xeb, 0x1b, 0xf3, 0xe0,
  0xcf, 0xcd, 0x15, 0x42, 0x3a, 0x63, 0x01, 0x4e, 0x12, 0x09, 0x16, 0xea,
  0x5d, 0x0e, 0xf7, 0x27, 0xf4, 0x1d, 0xfc, 0x2a, 0x14, 0x29, 0x06, 0xe6,
  0xdc, 0xff, 0xe7, 0xf3, 0x15, 0x52, 0x2e, 0x02, 0x0d, 0x1d, 0x11, 0x0f,
  0xec, 0x4c, 0x20, 0xe3, 0x14, 0xfe, 0x1b, 0x32, 0xfc, 0x0d, 0xfa, 0x1d,
  0xdb, 0x06, 0xb1, 0x1a, 0x10, 0x19, 0x00, 0xf0, 0x95, 0x46, 0x66, 0x2b,
  0xb7, 0xe9, 0xdb, 0x14, 0xdc, 0xd7, 0x1d, 0xd9, 0xc0, 0x5f, 0x56, 0xfa,
  0x03, 0x05, 0xc3, 0xd8, 0xb1, 0x02, 0x17, 0xc8, 0xa8, 0xc3, 0x18, 0x5a,
  0xee, 0x3b, 0x81, 0xda, 0xc0, 0x18, 0xfb, 0xf4, 0xe7, 0x10, 0x12, 0xf6,
  0xfa, 0xfb, 0xec, 0x2e, 0x05, 0x38, 0x61, 0x0a, 0x00, 0xb4, 0xbb, 0x18,
  0x17, 0xad, 0x6a, 0xea, 0xf5, 0x10, 0xbc, 0xce, 0xd9, 0xef, 0xf8, 0xe4,
  0x24, 0xfc, 0xe5, 0xaa, 0xef, 0xc5, 0xfc, 0xf4, 0xcd, 0x27, 0x00, 0x21,
  0x0d, 0x00, 0xcb, 0x0a, 0x13, 0x85, 0xde, 0x54, 0x29, 0xac, 0x99, 0xe7,
  0xe9, 0xf3, 0x34, 0xce, 0x18, 0xcc, 0xdf, 0x34, 0x0e, 0xf1, 0x0b, 0x5a,
  0x2c, 0xb8, 0xe8, 0xc6, 0x39, 0x04, 0xa4, 0x01, 0xf2, 0xd4, 0x3d, 0xa6,
  0x41, 0x1b, 0xc9, 0xab, 0xbd, 0x1a, 0x16, 0x0a, 0x9c, 0x0b, 0xfb, 0x41,
  0xfd, 0xf6, 0xf0, 0x0d, 0x42, 0xe0, 0x3e, 0xf6, 0x06, 0x61, 0xe5, 0xfe,
  0x23, 0xfe, 0xf6, 0x02, 0x42, 0xcd, 0xbc, 0xc0, 0x2f, 0x31, 0xf5, 0x08,
  0x2b, 0x20, 0xb1, 0x0f, 0x49, 0x1e, 0x0a, 0xf8, 0xfa, 0x26, 0xf6, 0xa3,
  0x08, 0x16, 0xf0, 0x0e, 0xff, 0x03, 0xcf, 0x08, 0x41, 0x03, 0x16, 0x09,
  0x56, 0x5d, 0xc9, 0xfb, 0xc0, 0x3f, 0xae, 0x06, 0x10, 0x71, 0x23, 0xeb,
  0xdd, 0xb1, 0xce, 0x22, 0xf2, 0xe0, 0xc4, 0xff, 0x43, 0x11, 0x26, 0x09,
  0x1f, 0x2d, 0xc6, 0x00, 0xd0, 0x0f, 0xde, 0x07, 0x67, 0xd6, 0xbe, 0xc6,
  0x1a, 0x0b, 0xff, 0x37, 0xe1, 0xfc, 0xe4, 0x1a, 0xc5, 0xd1, 0x10, 0x10,
  0xed, 0xf4, 0xd3, 0x0a, 0x47, 0x48, 0xc6, 0x16, 0xce, 0xee, 0x10, 0xc0,
  0xc5, 0x20, 0xcb, 0x2e, 0xb2, 0x0a, 0xb6, 0xf2, 0x1f, 0x3c, 0xec, 0xc9,
  0xd9, 0x0f, 0x9b, 0x4d, 0x09, 0xf5, 0xb2, 0xc9, 0xd4, 0xf9, 0x12, 0xbb,
  0x2e, 0x17, 0x2f, 0x21, 0xec, 0xda, 0x1c, 0xf4, 0x37, 0xbd, 0xe9, 0xe1,
  0xf6, 0x02, 0xe4, 0xf1, 0xf2, 0x0b, 0x6b, 0x2f, 0x35, 0x2a, 0xea, 0x39,
  0xd8, 0x21, 0xc1, 0x0f, 0x0b, 0x0f, 0x03, 0xb1, 0x33, 0xdb, 0x44, 0x72,
  0x16, 0x03, 0xde, 0xb8, 0x1c, 0xc8, 0x02, 0x02, 0x26, 0xe7, 0xd3, 0x07,
  0x27, 0xcc, 0x43, 0xdc, 0xd7, 0x3f, 0x07, 0xc2, 0xcb, 0x35, 0x68, 0xb6,
  0xfd, 0xed, 0xb8, 0xd7, 0x56, 0xc9, 0xda, 0x25, 0xeb, 0x05, 0xc7, 0xff,
  0xce, 0x55, 0xc3, 0xfe, 0x6b, 0xd6, 0x25, 0xaa, 0xeb, 0xcd, 0xcc, 0x3c,
  0xef, 0xcd, 0x4b, 0xa9, 0x02, 0x30, 0x1d, 0x29, 0x13, 0xeb, 0xfb, 0x04,
  0xe1, 0x19, 0x1e, 0x43, 0xec, 0xe4, 0x18, 0xee, 0xe5, 0x16, 0x06, 0xd2,
  0xa5, 0x2a, 0x21, 0x07, 0x06, 0xc5, 0x08, 0x13, 0x3c, 0xdf, 0xf4, 0xf2,
  0x1a, 0x04, 0xff, 0xeb, 0xba, 0x09, 0xcf, 0x3a, 0xff, 0x01, 0xdf, 0x25,
  0x07, 0x10, 0x19, 0xf4, 0x41, 0xff, 0x1f, 0xf4, 0xc1, 0x1c, 0x1f, 0xef,
  0xed, 0x42, 0x26, 0x12, 0xf6, 0x4c, 0xc2, 0x20, 0xfc, 0xd0, 0xbc, 0x01,
  0x19, 0x2e, 0xdf, 0x3a, 0xe0, 0x1a, 0xfb, 0x1c, 0x2a, 0x27, 0xd7, 0x2e,
  0xce, 0xf1, 0x20, 0x19, 0x08, 0x19, 0x03, 0x48, 0xe5, 0x10, 0xe3, 0x6e,
  0x51, 0xd7, 0xca, 0xf3, 0x05, 0x56, 0xda, 0x34, 0xf4, 0x18, 0xbf, 0x2d,
  0x5b, 0x07, 0xf0, 0x01, 0xcc, 0xde, 0x16, 0xae, 0x49, 0xe7, 0x14, 0xe4,
  0xe6, 0x1e, 0xf4, 0xcf, 0xec, 0x13, 0xae, 0xd8, 0xc0, 0xcc, 0x23, 0xd8,
  0xe2, 0xfa, 0xb6, 0x29, 0xe3, 0xf9, 0x3b, 0x3c, 0xf3, 0xf3, 0x4b, 0x0b,
  0x07, 0xcf, 0xd3, 0xc8, 0x34, 0x5d, 0xf9, 0x24, 0xef, 0xe4, 0xf8, 0xde,
  0x5b, 0x34, 0xa7, 0xe9, 0x0f, 0xe4, 0xf2, 0xae, 0xb1, 0xed, 0xff, 0x15,
  0xed, 0x1a, 0xe9, 0x74, 0x0b, 0xde, 0xe7, 0x0b, 0x25, 0xd5, 0x10, 0xe7,
  0x1b, 0x24, 0xf7, 0x4d, 0xe5, 0xca, 0xde, 0xc2, 0x12, 0xdd, 0x3c, 0xf4,
  0x0e, 0x20, 0xed, 0x33, 0xd5, 0x30, 0x20, 0x66, 0xd2, 0x06, 0x06, 0x7e,
  0xb1, 0xff, 0x0f, 0xff, 0x0e, 0xea, 0xe2, 0x1d, 0xfe, 0x3d, 0x27, 0x0c,
  0x37, 0x9b, 0xd9, 0xbb, 0x1a, 0xd9, 0xc7, 0xd2, 0xf3, 0xe9, 0x2d, 0x3c,
